{
  "version": "1.0",
  "truncation": null,
  "padding": null,
  "added_tokens": [
    {
      "id": 0,
      "content": "<pad>",
      "single_word": false,
      "lstrip": false,
      "rstrip": false,
      "normalized": false,
      "special": true
    },
    {
      "id": 1,
      "content": "<unk>",
      "single_word": false,
      "lstrip": false,
      "rstrip": false,
      "normalized": false,
      "special": true
    },
    {
      "id": 2,
      "content": "<s>",
      "single_word": false,
      "lstrip": false,
      "rstrip": false,
      "normalized": false,
      "special": true
    },
    {
      "id": 3,
      "content": "</s>",
      "single_word": false,
      "lstrip": false,
      "rstrip": false,
      "normalized": false,
      "special": true
    }
  ],
  "normalizer": null,
  "pre_tokenizer": {
    "type": "ByteLevel",
    "add_prefix_space": false,
    "trim_offsets": true,
    "use_regex": true
  },
  "post_processor": {
    "type": "ByteLevel",
    "add_prefix_space": true,
    "trim_offsets": false,
    "use_regex": true
  },
  "decoder": {
    "type": "ByteLevel",
    "add_prefix_space": true,
    "trim_offsets": true,
    "use_regex": true
  },
  "model": {
    "type": "BPE",
    "dropout": null,
    "unk_token": null,
    "continuing_subword_prefix": null,
    "end_of_word_suffix": null,
    "fuse_unk": false,
    "byte_fallback": false,
    "ignore_merges": false,
    "vocab": {
      "<pad>": 0,
      "<unk>": 1,
      "<s>": 2,
      "</s>": 3,
      "!": 4,
      "\"": 5,
      "#": 6,
      "$": 7,
      "%": 8,
      "&": 9,
      "'": 10,
      "(": 11,
      ")": 12,
      "*": 13,
      "+": 14,
      ",": 15,
      "-": 16,
      ".": 17,
      "/": 18,
      "0": 19,
      "1": 20,
      "2": 21,
      "3": 22,
      "4": 23,
      "5": 24,
      "6": 25,
      "7": 26,
      "8": 27,
      "9": 28,
      ":": 29,
      ";": 30,
      "<": 31,
      "=": 32,
      ">": 33,
      "?": 34,
      "@": 35,
      "A": 36,
      "B": 37,
      "C": 38,
      "D": 39,
      "E": 40,
      "F": 41,
      "G": 42,
      "H": 43,
      "I": 44,
      "J": 45,
      "K": 46,
      "L": 47,
      "M": 48,
      "N": 49,
      "O": 50,
      "P": 51,
      "Q": 52,
      "R": 53,
      "S": 54,
      "T": 55,
      "U": 56,
      "V": 57,
      "W": 58,
      "X": 59,
      "Y": 60,
      "Z": 61,
      "[": 62,
      "\\": 63,
      "]": 64,
      "^": 65,
      "_": 66,
      "`": 67,
      "a": 68,
      "b": 69,
      "c": 70,
      "d": 71,
      "e": 72,
      "f": 73,
      "g": 74,
      "h": 75,
      "i": 76,
      "j": 77,
      "k": 78,
      "l": 79,
      "m": 80,
      "n": 81,
      "o": 82,
      "p": 83,
      "q": 84,
      "r": 85,
      "s": 86,
      "t": 87,
      "u": 88,
      "v": 89,
      "w": 90,
      "x": 91,
      "y": 92,
      "z": 93,
      "{": 94,
      "|": 95,
      "}": 96,
      "~": 97,
      "¡": 98,
      "¢": 99,
      "£": 100,
      "¤": 101,
      "¥": 102,
      "¦": 103,
      "§": 104,
      "¨": 105,
      "©": 106,
      "ª": 107,
      "«": 108,
      "¬": 109,
      "®": 110,
      "¯": 111,
      "°": 112,
      "±": 113,
      "²": 114,
      "³": 115,
      "´": 116,
      "µ": 117,
      "¶": 118,
      "·": 119,
      "¸": 120,
      "¹": 121,
      "º": 122,
      "»": 123,
      "¼": 124,
      "½": 125,
      "¾": 126,
      "¿": 127,
      "À": 128,
      "Á": 129,
      "Â": 130,
      "Ã": 131,
      "Ä": 132,
      "Å": 133,
      "Æ": 134,
      "Ç": 135,
      "È": 136,
      "É": 137,
      "Ê": 138,
      "Ë": 139,
      "Ì": 140,
      "Í": 141,
      "Î": 142,
      "Ï": 143,
      "Ð": 144,
      "Ñ": 145,
      "Ò": 146,
      "Ó": 147,
      "Ô": 148,
      "Õ": 149,
      "Ö": 150,
      "×": 151,
      "Ø": 152,
      "Ù": 153,
      "Ú": 154,
      "Û": 155,
      "Ü": 156,
      "Ý": 157,
      "Þ": 158,
      "ß": 159,
      "à": 160,
      "á": 161,
      "â": 162,
      "ã": 163,
      "ä": 164,
      "å": 165,
      "æ": 166,
      "ç": 167,
      "è": 168,
      "é": 169,
      "ê": 170,
      "ë": 171,
      "ì": 172,
      "í": 173,
      "î": 174,
      "ï": 175,
      "ð": 176,
      "ñ": 177,
      "ò": 178,
      "ó": 179,
      "ô": 180,
      "õ": 181,
      "ö": 182,
      "÷": 183,
      "ø": 184,
      "ù": 185,
      "ú": 186,
      "û": 187,
      "ü": 188,
      "ý": 189,
      "þ": 190,
      "ÿ": 191,
      "Ā": 192,
      "ā": 193,
      "Ă": 194,
      "ă": 195,
      "Ą": 196,
      "ą": 197,
      "Ć": 198,
      "ć": 199,
      "Ĉ": 200,
      "ĉ": 201,
      "Ċ": 202,
      "ċ": 203,
      "Č": 204,
      "č": 205,
      "Ď": 206,
      "ď": 207,
      "Đ": 208,
      "đ": 209,
      "Ē": 210,
      "ē": 211,
      "Ĕ": 212,
      "ĕ": 213,
      "Ė": 214,
      "ė": 215,
      "Ę": 216,
      "ę": 217,
      "Ě": 218,
      "ě": 219,
      "Ĝ": 220,
      "ĝ": 221,
      "Ğ": 222,
      "ğ": 223,
      "Ġ": 224,
      "ġ": 225,
      "Ģ": 226,
      "ģ": 227,
      "Ĥ": 228,
      "ĥ": 229,
      "Ħ": 230,
      "ħ": 231,
      "Ĩ": 232,
      "ĩ": 233,
      "Ī": 234,
      "ī": 235,
      "Ĭ": 236,
      "ĭ": 237,
      "Į": 238,
      "į": 239,
      "İ": 240,
      "ı": 241,
      "Ĳ": 242,
      "ĳ": 243,
      "Ĵ": 244,
      "ĵ": 245,
      "Ķ": 246,
      "ķ": 247,
      "ĸ": 248,
      "Ĺ": 249,
      "ĺ": 250,
      "Ļ": 251,
      "ļ": 252,
      "Ľ": 253,
      "ľ": 254,
      "Ŀ": 255,
      "ŀ": 256,
      "Ł": 257,
      "ł": 258,
      "Ń": 259,
      "on": 260,
      "Ġt": 261,
      "Ġd": 262,
      "es": 263,
      "en": 264,
      "Ġa": 265,
      "Ġl": 266,
      "Ġp": 267,
      "Ã©": 268,
      "in": 269,
      "re": 270,
      "Ġc": 271,
      "Ġth": 272,
      "ti": 273,
      "Ġs": 274,
      "er": 275,
      "is": 276,
      "ou": 277,
      "an": 278,
      "ent": 279,
      "Ġthe": 280,
      "Ġde": 281,
      "it": 282,
      "or": 283,
      "qu": 284,
      "tion": 285,
      "Ġm": 286,
      "ro": 287,
      "Ġe": 288,
      "ar": 289,
      "Ġw": 290,
      "Ġf": 291,
      "Ġn": 292,
      "le": 293,
      "at": 294,
      "Ġo": 295,
      "om": 296,
      "Ġin": 297,
      "Ġb": 298,
      "al": 299,
      "ment": 300,
      "Ġqu": 301,
      "si": 302,
      "Ġla": 303,
      "Ġto": 304,
      "Ġof": 305,
      "ur": 306,
      "Ġan": 307,
      "un": 308,
      "Ġr": 309,
      "ve": 310,
      "il": 311,
      "ic": 312,
      "te": 313,
      "ation": 314,
      "Ġle": 315,
      "as": 316,
      "Ġh": 317,
      "Ġcon": 318,
      "us": 319,
      "Ġand": 320,
      "ing": 321,
      "ĠÃ": 322,
      "Ġre": 323,
      "our": 324,
      "Ġet": 325,
      "ce": 326,
      "omm": 327,
      "el": 328,
      "Ġpro": 329,
      "ra": 330,
      "Ġv": 331,
      "Ġen": 332,
      "Ġdes": 333,
      "et": 334,
      "Ġun": 335,
      "ed": 336,
      "ĠC": 337,
      "ĠÃł": 338,
      "Ġles": 339,
      "ous": 340,
      "ol": 341,
      "ir": 342,
      "pe": 343,
      "Ġis": 344,
      "Ã¨": 345,
      "ut": 346,
      "im": 347,
      "Ġque": 348,
      "ons": 349,
      "Ġbe": 350,
      "Ġg": 351,
      "est": 352,
      "ort": 353,
      "ant": 354,
      "Ġon": 355,
      "os": 356,
      "Ġthat": 357,
      "Ġpar": 358,
      "id": 359,
      "ans": 360,
      "Ġwh": 361,
      "uro": 362,
      "ot": 363,
      "ĠP": 364,
      "pp": 365,
      "res": 366,
      "ch": 367,
      "sion": 368,
      "ly": 369,
      "Ġfor": 370,
      "ci": 371,
      "ire": 372,
      "ul": 373,
      "ri": 374,
      "ct": 375,
      "ĠÃ©": 376,
      "Ġj": 377,
      "Ġau": 378,
      "ĠdÃ©": 379,
      "ĠM": 380,
      "rÃ©": 381,
      "ig": 382,
      "me": 383,
      "em": 384,
      "Ġne": 385,
      "Ġfa": 386,
      "ĠComm": 387,
      "ter": 388,
      "Ġdu": 389,
      "ab": 390,
      "ĠE": 391,
      "Ġpour": 392,
      "Ġma": 393,
      "Ġex": 394,
      "Ġal": 395,
      "Ġsu": 396,
      "ission": 397,
      "ne": 398,
      "end": 399,
      "Ġas": 400,
      "que": 401,
      "ff": 402,
      "ion": 403,
      "Ġwe": 404,
      "Th": 405,
      "ers": 406,
      "lement": 407,
      "Ġse": 408,
      "ĠrÃ©": 409,
      "Ġqui": 410,
      "Ġthis": 411,
      "op": 412,
      "Ġit": 413,
      "Ġdans": 414,
      "Ġnot": 415,
      "ĠI": 416,
      "Ġcomm": 417,
      "itÃ©": 418,
      "ag": 419,
      "Ġnous": 420,
      "oul": 421,
      "Ġest": 422,
      "Ġce": 423,
      "ain": 424,
      "out": 425,
      "Ġare": 426,
      "ure": 427,
      "ay": 428,
      "Ġha": 429,
      "ver": 430,
      "Ġpl": 431,
      "ĠCommission": 432,
      "Ġune": 433,
      "ont": 434,
      "iti": 435,
      "ich": 436,
      "Ġpas": 437,
      "urope": 438,
      "imp": 439,
      "ill": 440,
      "tr": 441,
      "ith": 442,
      "ie": 443,
      "Ġcom": 444,
      "de": 445,
      "ess": 446,
      "Ġwhich": 447,
      "ate": 448,
      "pÃ©": 449,
      "ould": 450,
      "Ġra": 451,
      "ux": 452,
      "Ġwith": 453,
      "Ġsur": 454,
      "ĠEurope": 455,
      "ow": 456,
      "Ġac": 457,
      "tÃ©": 458,
      "ens": 459,
      "Ġy": 460,
      "Ġso": 461,
      "Ġhave": 462,
      "tions": 463,
      "tive": 464,
      "tre": 465,
      "ĠS": 466,
      "li": 467,
      "ore": 468,
      "emb": 469,
      "ad": 470,
      "oun": 471,
      "Ġimp": 472,
      "ations": 473,
      "Ġpol": 474,
      "Ġch": 475,
      "Ġdo": 476,
      "st": 477,
      "ement": 478,
      "Un": 479,
      "The": 480,
      "am": 481,
      "and": 482,
      "Ġres": 483,
      "di": 484,
      "ence": 485,
      "ac": 486,
      "Ġat": 487,
      "les": 488,
      "tat": 489,
      "ord": 490,
      "Ġtr": 491,
      "ue": 492,
      "ity": 493,
      "Ġeuro": 494,
      "ke": 495,
      "Ġprop": 496,
      "sid": 497,
      "ĠprÃ©": 498,
      "Ġconc": 499,
      "Ã¨re": 500,
      "Ġ-": 501,
      "Ġpe": 502,
      "th": 503,
      "ust": 504,
      "oin": 505,
      "ĠPar": 506,
      "Ġdis": 507,
      "ĠeuropÃ©": 508,
      "ven": 509,
      "Ġsh": 510,
      "00": 511,
      "Ġje": 512,
      "Ãª": 513,
      "Ġby": 514,
      "Ġsa": 515,
      "Ġcons": 516,
      "ance": 517,
      "um": 518,
      "tic": 519,
      "ĠEuropean": 520,
      "Union": 521,
      "ts": 522,
      "Ġwill": 523,
      "du": 524,
      "Ã©e": 525,
      "pport": 526,
      "aire": 527,
      "Ġli": 528,
      "urs": 529,
      "Ġcomp": 530,
      "vel": 531,
      "Ġil": 532,
      "Ġ1": 533,
      "ĠeuropÃ©en": 534,
      "Ġag": 535,
      "ble": 536,
      "Ġtra": 537,
      "ĠA": 538,
      "Ã©r": 539,
      "Ġam": 540,
      "able": 541,
      "Ġpr": 542,
      "igh": 543,
      "ette": 544,
      "Ġme": 545,
      "Ġrep": 546,
      "Ġplus": 547,
      "Ġhas": 548,
      "Ġapp": 549,
      "Ġad": 550,
      "Ġav": 551,
      "Ġcont": 552,
      "iss": 553,
      "oc": 554,
      "Ã©s": 555,
      "Ġor": 556,
      "con": 557,
      "osi": 558,
      "Ġdi": 559,
      "ction": 560,
      "au": 561,
      "Ġall": 562,
      "ard": 563,
      "for": 564,
      "ait": 565,
      "Ġpoliti": 566,
      "ud": 567,
      "ted": 568,
      "Ġinter": 569,
      "Ġser": 570,
      "Ġgr": 571,
      "ques": 572,
      "Ġst": 573,
      "bl": 574,
      "Ġmo": 575,
      "elle": 576,
      "ament": 577,
      "Ġdire": 578,
      "eur": 579,
      "ution": 580,
      "ces": 581,
      "ise": 582,
      "Ã¨s": 583,
      "mes": 584,
      "ident": 585,
      "Ġcette": 586,
      "so": 587,
      "ern": 588,
      "ves": 589,
      "Je": 590,
      "cess": 591,
      "ert": 592,
      "Ġco": 593,
      "ist": 594,
      "Ġwould": 595,
      "pl": 596,
      "Ġaux": 597,
      "Ġimport": 598,
      "cial": 599,
      "ient": 600,
      "onsi": 601,
      "tif": 602,
      "Ġab": 603,
      "rom": 604,
      "ĠB": 605,
      "if": 606,
      "tit": 607,
      "ments": 608,
      "ays": 609,
      "Ġques": 610,
      "ten": 611,
      "Ġent": 612,
      "air": 613,
      "Ġfin": 614,
      "age": 615,
      "Ġreg": 616,
      "Ġeff": 617,
      "Ġthere": 618,
      "ge": 619,
      "use": 620,
      "ctive": 621,
      "Ã©es": 622,
      "ale": 623,
      "ĠPres": 624,
      "Ġsont": 625,
      "ĠUnion": 626,
      "sident": 627,
      "ique": 628,
      "une": 629,
      "oir": 630,
      "ien": 631,
      "Ġcan": 632,
      "Ġshould": 633,
      "Ġaut": 634,
      "Ġave": 635,
      "We": 636,
      "Ġalso": 637,
      "Ġdev": 638,
      "ors": 639,
      "ose": 640,
      "Ġman": 641,
      "Ġta": 642,
      "Ġpre": 643,
      "iv": 644,
      "Ġu": 645,
      "ign": 646,
      "ite": 647,
      "Ġ2": 648,
      "99": 649,
      "Ġour": 650,
      "Ġmust": 651,
      "Ġpu": 652,
      "Ġbut": 653,
      "je": 654,
      "erm": 655,
      "Ġfrom": 656,
      "ĠPresident": 657,
      "Il": 658,
      "og": 659,
      "Ġacc": 660,
      "ĠF": 661,
      "Ġins": 662,
      "ĠeuropÃ©enne": 663,
      "Ã©g": 664,
      "cl": 665,
      "Ġpoin": 666,
      "form": 667,
      "Ġpos": 668,
      "Ġavec": 669,
      "onn": 670,
      "liament": 671,
      "ĠG": 672,
      "ĠMr": 673,
      "ally": 674,
      "cis": 675,
      "ais": 676,
      "ions": 677,
      "Ġtout": 678,
      "Ġmais": 679,
      "onsieur": 680,
      "Ġmar": 681,
      "pr": 682,
      "ese": 683,
      "Ġdem": 684,
      "Ġpropos": 685,
      "Nous": 686,
      "ures": 687,
      "rÃ©sident": 688,
      "se": 689,
      "its": 690,
      "Ġmon": 691,
      "Ġbeen": 692,
      "oy": 693,
      "Ġcl": 694,
      "ertain": 695,
      "ĠPrÃ©sident": 696,
      "ult": 697,
      "Ġhe": 698,
      "Le": 699,
      "ĠÃª": 700,
      "osition": 701,
      "Ġprog": 702,
      "ītat": 703,
      "Ġou": 704,
      "ork": 705,
      "Ġob": 706,
      "ond": 707,
      "velop": 708,
      "conom": 709,
      "ĠT": 710,
      "ies": 711,
      "aut": 712,
      "iÃ¨re": 713,
      "Ġrapport": 714,
      "Ġcoun": 715,
      "tru": 716,
      "ace": 717,
      "Ġtrans": 718,
      "ussi": 719,
      "aux": 720,
      "all": 721,
      "ish": 722,
      "ĠÃªtre": 723,
      "Ġdiff": 724,
      "ĠParlement": 725,
      "Ġimportant": 726,
      "Ġquestion": 727,
      "ome": 728,
      "Ġwas": 729,
      "onse": 730,
      "Ġpays": 731,
      "Ġsou": 732,
      "Ġreport": 733,
      "ier": 734,
      "Ãł": 735,
      "Ġces": 736,
      "Ġcertain": 737,
      "ap": 738,
      "ational": 739,
      "Ġgo": 740,
      "ĠMemb": 741,
      "od": 742,
      "Ġfait": 743,
      "Ġvo": 744,
      "cil": 745,
      "ĠParliament": 746,
      "Ġmemb": 747,
      "aires": 748,
      "alement": 749,
      "Ã¨me": 750,
      "Ġyou": 751,
      "Ġits": 752,
      "ary": 753,
      "oup": 754,
      "ĠÃītat": 755,
      "La": 756,
      "sent": 757,
      "ong": 758,
      "pect": 759,
      "ĠÃ©tÃ©": 760,
      "ues": 761,
      "ail": 762,
      "Ġpart": 763,
      "fin": 764,
      "ticul": 765,
      "ĠR": 766,
      "Ġont": 767,
      "ex": 768,
      "It": 769,
      "isation": 770,
      "Ġno": 771,
      "Ġparticul": 772,
      "Ġparti": 773,
      "Ġrel": 774,
      "Ġint": 775,
      "Ġdro": 776,
      "Ġpolitique": 777,
      "ide": 778,
      "reat": 779,
      "cep": 780,
      "In": 781,
      "Ġconcern": 782,
      "Ġmore": 783,
      "Ġvous": 784,
      "Ġcommun": 785,
      "ĠÃ©g": 786,
      "ui": 787,
      "ress": 788,
      "Ãªme": 789,
      "Ġus": 790,
      "ime": 791,
      "Ġentre": 792,
      "fic": 793,
      "Ġver": 794,
      "ĠD": 795,
      "Ġcomme": 796,
      "tri": 797,
      "Ġsit": 798,
      "ight": 799,
      "Ã©n": 800,
      "Ġsi": 801,
      "ive": 802,
      "ther": 803,
      "ber": 804,
      "ca": 805,
      "ang": 806,
      "Ã´": 807,
      "gh": 808,
      "ative": 809,
      "ĠN": 810,
      "Ġrem": 811,
      "Ġprodu": 812,
      "Ã¨g": 813,
      "Mr": 814,
      "oll": 815,
      "Ġlike": 816,
      "This": 817,
      "tates": 818,
      "ati": 819,
      "nement": 820,
      "Ġsy": 821,
      "orte": 822,
      "ram": 823,
      "vir": 824,
      "Ġpers": 825,
      "Ġthese": 826,
      "ric": 827,
      "ine": 828,
      "Ġrec": 829,
      "olution": 830,
      "Ġcas": 831,
      "ouv": 832,
      "ear": 833,
      "Ġneed": 834,
      "Ġar": 835,
      "her": 836,
      "Ġpoint": 837,
      "ĠÃītats": 838,
      "Ġpolic": 839,
      "ĠCoun": 840,
      "Ġout": 841,
      "ple": 842,
      "bre": 843,
      "Ġwho": 844,
      "onseil": 845,
      "ĠConseil": 846,
      "king": 847,
      "ĠCouncil": 848,
      "Ġpossi": 849,
      "are": 850,
      "ms": 851,
      "uation": 852,
      "ĠMember": 853,
      "ai": 854,
      "ĠrÃ©g": 855,
      "Ġtrav": 856,
      "Ġtheir": 857,
      "Monsieur": 858,
      "av": 859,
      "Ġem": 860,
      "til": 861,
      "port": 862,
      "Ġcel": 863,
      "jet": 864,
      "Ġsub": 865,
      "fore": 866,
      "viron": 867,
      "che": 868,
      "par": 869,
      "ĠH": 870,
      "ĠStates": 871,
      "Ġaussi": 872,
      "Ġconf": 873,
      "ois": 874,
      "Ġwork": 875,
      "000": 876,
      "Ġcar": 877,
      "Ġnom": 878,
      "oi": 879,
      "Ġthey": 880,
      "Ġprogram": 881,
      "ob": 882,
      "Ġcour": 883,
      "Ġprin": 884,
      "Ġop": 885,
      "Ġinc": 886,
      "Ġdisc": 887,
      "ants": 888,
      "Ġvery": 889,
      "Ġamend": 890,
      "Ġdon": 891,
      "Ġprinci": 892,
      "ĠÃ©galement": 893,
      "Ġel": 894,
      "itÃ©s": 895,
      "Ġcr": 896,
      "ĠL": 897,
      "lic": 898,
      "Ġbien": 899,
      "ĠÃ©t": 900,
      "Ġup": 901,
      "Ã©d": 902,
      "Ġresp": 903,
      "bil": 904,
      "Ġ:": 905,
      "get": 906,
      "els": 907,
      "Ġmembres": 908,
      "Ġind": 909,
      "vis": 910,
      "ough": 911,
      "enti": 912,
      "Ġdirective": 913,
      "vent": 914,
      "ande": 915,
      "ĠsÃ©": 916,
      "Ġone": 917,
      "Ġtou": 918,
      "En": 919,
      "ĠrÃ©s": 920,
      "Ġnotre": 921,
      "Ġfaire": 922,
      "Ġspe": 923,
      "Ġrapp": 924,
      "Ġ(": 925,
      "ell": 926,
      "Ġnou": 927,
      "Ġpri": 928,
      "Ġother": 929,
      "Ġconsid": 930,
      "tries": 931,
      "titu": 932,
      "jour": 933,
      "Ġcountries": 934,
      "Ġwhat": 935,
      "ice": 936,
      "Ġund": 937,
      "Ġexp": 938,
      "bat": 939,
      "oud": 940,
      "Ġmes": 941,
      "Ġbas": 942,
      "iter": 943,
      "Ġiss": 944,
      "Ġmy": 945,
      "ely": 946,
      "Ġ199": 947,
      "Ġthan": 948,
      "Ġsoci": 949,
      "ouver": 950,
      "Ġsituation": 951,
      "abil": 952,
      "Ġenc": 953,
      "ĠtrÃ¨s": 954,
      "enc": 955,
      "Ġ\"": 956,
      "Ġpeut": 957,
      "ante": 958,
      "Ġappro": 959,
      "Ġdoit": 960,
      "Ġpres": 961,
      "endre": 962,
      "rais": 963,
      "Ġk": 964,
      "gan": 965,
      "ind": 966,
      "ements": 967,
      "cte": 968,
      "Ġass": 969,
      "Ġif": 970,
      "Ġnon": 971,
      "Ġson": 972,
      "Ġbet": 973,
      "Ġabout": 974,
      "ĠmÃªme": 975,
      "cause": 976,
      "ense": 977,
      "ated": 978,
      "cur": 979,
      "Ġtous": 980,
      "ople": 981,
      "Ġadop": 982,
      "ises": 983,
      "Ġyear": 984,
      "arg": 985,
      "Ġes": 986,
      "Ã©t": 987,
      "Ġfinan": 988,
      "Ġhum": 989,
      "ctu": 990,
      "Ġany": 991,
      "Ġstr": 992,
      "we": 993,
      "blic": 994,
      "Ġprobl": 995,
      "Ġleg": 996,
      "Ġonly": 997,
      "Ġbecause": 998,
      "Ġjus": 999,
      "cu": 1000,
      "ious": 1001,
      "isl": 1002,
      "Ġleur": 1003,
      "ach": 1004,
      "Ġsocial": 1005,
      "ĠprÃ©sent": 1006,
      "und": 1007,
      "Ġtime": 1008,
      "elles": 1009,
      "Ġprote": 1010,
      "Ġavons": 1011,
      "Ġnew": 1012,
      "Ġintern": 1013,
      "ree": 1014,
      "ost": 1015,
      "Ġvoud": 1016,
      "Ġter": 1017,
      "Ġinform": 1018,
      "Ġdevelop": 1019,
      "tis": 1020,
      "Ġpolicy": 1021,
      "ph": 1022,
      "ced": 1023,
      "Ġbud": 1024,
      "ere": 1025,
      "ights": 1026,
      "ĠdÃ©p": 1027,
      "ities": 1028,
      "lÃ©": 1029,
      "itte": 1030,
      "Ġ?": 1031,
      "lear": 1032,
      "rait": 1033,
      "Ġpeople": 1034,
      "Ġvot": 1035,
      "ever": 1036,
      "ĠnÃ©": 1037,
      "Ġproposal": 1038,
      "Ġtravail": 1039,
      "Ġref": 1040,
      "Ġobje": 1041,
      "irst": 1042,
      "ĠEU": 1043,
      "Ġte": 1044,
      "ieve": 1045,
      "Ġenviron": 1046,
      "rib": 1047,
      "Ġsupport": 1048,
      "ps": 1049,
      "Ġper": 1050,
      "Ġfact": 1051,
      "Ġagain": 1052,
      "Ġperm": 1053,
      "order": 1054,
      "Ġmin": 1055,
      "Les": 1056,
      "Ġsome": 1057,
      "Ã§": 1058,
      "Ġserv": 1059,
      "Ġcoop": 1060,
      "ĠÃ©v": 1061,
      "ulation": 1062,
      "Ġmain": 1063,
      "tem": 1064,
      "Ġvoudrais": 1065,
      "tiÃ¨re": 1066,
      "Ġmen": 1067,
      "Ġmat": 1068,
      "ink": 1069,
      "vention": 1070,
      "ittee": 1071,
      "cal": 1072,
      "Ġpossible": 1073,
      "Ġcoll": 1074,
      "Ġvie": 1075,
      "ici": 1076,
      "Ġdroits": 1077,
      "Ġlong": 1078,
      "ug": 1079,
      "act": 1080,
      "Ġdeux": 1081,
      "Ġlors": 1082,
      "ĠintÃ©": 1083,
      "Ġform": 1084,
      "Ġprocess": 1085,
      "Ġdisp": 1086,
      "Ġrespect": 1087,
      "ĠK": 1088,
      "olog": 1089,
      "Ġmake": 1090,
      "Ġnow": 1091,
      "Ġpublic": 1092,
      "Ġvote": 1093,
      "Ġcela": 1094,
      "Ġinv": 1095,
      "ille": 1096,
      "Ġaff": 1097,
      "chn": 1098,
      "Ġeffe": 1099,
      "Ġann": 1100,
      "Ġpeu": 1101,
      "ocra": 1102,
      "Ġtake": 1103,
      "Ġsign": 1104,
      "aine": 1105,
      "iques": 1106,
      "sions": 1107,
      "try": 1108,
      "imin": 1109,
      "Ġrapporte": 1110,
      "Ġfaut": 1111,
      "unity": 1112,
      "Ã¨res": 1113,
      "Ġproble": 1114,
      "vern": 1115,
      "Ġinto": 1116,
      "Ġsuch": 1117,
      "Ġpouv": 1118,
      "Ġorgan": 1119,
      "Ġbeing": 1120,
      "cision": 1121,
      "pend": 1122,
      "Ġfond": 1123,
      "Ġparticular": 1124,
      "alitÃ©": 1125,
      "Ġcontin": 1126,
      "Ġnombre": 1127,
      "ween": 1128,
      "Ġcontre": 1129,
      "Ġens": 1130,
      "Ġdont": 1131,
      "Ġnational": 1132,
      "Ġtherefore": 1133,
      "Ġhow": 1134,
      "rie": 1135,
      "Ġbetween": 1136,
      "ural": 1137,
      "Ġdonc": 1138,
      "tes": 1139,
      "Ġaccord": 1140,
      "Ġrais": 1141,
      "now": 1142,
      "ĠCh": 1143,
      "ĠnÃ©cess": 1144,
      "Ġdom": 1145,
      "truct": 1146,
      "abl": 1147,
      "cti": 1148,
      "Ġ3": 1149,
      "ĠÃ©conom": 1150,
      "Ġeconom": 1151,
      "Ġcommission": 1152,
      "Ġposition": 1153,
      "cÃ©d": 1154,
      "Ġclear": 1155,
      "Ġsay": 1156,
      "ĠrÃ¨g": 1157,
      "Ġexam": 1158,
      "Ġway": 1159,
      "Ġwhen": 1160,
      "Ġprotection": 1161,
      "ĠdÃ©bat": 1162,
      "Ġsoit": 1163,
      "Ġproposition": 1164,
      "ences": 1165,
      "ication": 1166,
      "ĠmatiÃ¨re": 1167,
      "Ġnos": 1168,
      "ia": 1169,
      "Ġregard": 1170,
      "rer": 1171,
      "lu": 1172,
      "Ce": 1173,
      "veloppe": 1174,
      "ting": 1175,
      "acc": 1176,
      "Ġplace": 1177,
      "Ġrapporteur": 1178,
      "ents": 1179,
      "Ġdevons": 1180,
      "Ġses": 1181,
      "ĠO": 1182,
      "alis": 1183,
      "Ġbudget": 1184,
      "Ġprogramme": 1185,
      "Ġhuman": 1186,
      "Ġencore": 1187,
      "Ġmade": 1188,
      "Ġelle": 1189,
      "ĠlÃ©g": 1190,
      "Ġdemand": 1191,
      "Ġfe": 1192,
      "min": 1193,
      "Ġthose": 1194,
      "urr": 1195,
      "ame": 1196,
      "Ġmarch": 1197,
      "Ġcro": 1198,
      "ject": 1199,
      "Ġtechn": 1200,
      "arm": 1201,
      "Ġsomm": 1202,
      "Ġmet": 1203,
      "ĠdÃ©veloppe": 1204,
      "Ġdeb": 1205,
      "Ġrequ": 1206,
      "app": 1207,
      "ket": 1208,
      "ks": 1209,
      "ales": 1210,
      "Ġactu": 1211,
      "Ġaccep": 1212,
      "Ġpersonn": 1213,
      "eration": 1214,
      "olu": 1215,
      "Ġiniti": 1216,
      "vid": 1217,
      "Ġmill": 1218,
      "ency": 1219,
      "Ġfirst": 1220,
      "led": 1221,
      "Ġwere": 1222,
      "one": 1223,
      "ound": 1224,
      "Ġagre": 1225,
      "Ġbel": 1226,
      "Ġdonn": 1227,
      "Ġrights": 1228,
      "insi": 1229,
      "ser": 1230,
      "ĠrÃ©p": 1231,
      "tern": 1232,
      "Ã©ri": 1233,
      "Ġvis": 1234,
      "Ġknow": 1235,
      "ran": 1236,
      "Ã»": 1237,
      "Ġissue": 1238,
      "Ġthem": 1239,
      "ast": 1240,
      "ctif": 1241,
      "Ġsys": 1242,
      "jourd": 1243,
      "gr": 1244,
      "Ġsans": 1245,
      "ĠdÃ©m": 1246,
      "Ġcontr": 1247,
      "Ġgu": 1248,
      "tention": 1249,
      "tiv": 1250,
      "ĠdÃ©veloppement": 1251,
      "Ġess": 1252,
      "Ġover": 1253,
      "Ġgreat": 1254,
      "ices": 1255,
      "ss": 1256,
      "Europe": 1257,
      "Ġquel": 1258,
      "iste": 1259,
      "ving": 1260,
      "Ġve": 1261,
      "ĠcrÃ©": 1262,
      "Ġprem": 1263,
      "Ã´le": 1264,
      "ner": 1265,
      "issaire": 1266,
      "Ġpolitical": 1267,
      "Ġcontrib": 1268,
      "oins": 1269,
      "Ġtro": 1270,
      "emble": 1271,
      "ved": 1272,
      "Ġaid": 1273,
      "ploy": 1274,
      "oupe": 1275,
      "Ġjust": 1276,
      "ositions": 1277,
      "Ġgen": 1278,
      "ĠIn": 1279,
      "Ġincl": 1280,
      "Ġright": 1281,
      "arge": 1282,
      "venir": 1283,
      "ĠcollÃ¨g": 1284,
      "ov": 1285,
      "Ã®": 1286,
      "ables": 1287,
      "ctions": 1288,
      "wn": 1289,
      "erne": 1290,
      "Ġnouvel": 1291,
      "Ġcondi": 1292,
      "Ġim": 1293,
      "ulture": 1294,
      "jÃł": 1295,
      "itoy": 1296,
      "Ġgroup": 1297,
      "Ġtoute": 1298,
      "Ġmarket": 1299,
      "adre": 1300,
      "Ġsimp": 1301,
      "ld": 1302,
      "red": 1303,
      "ĠdÃ©jÃł": 1304,
      "Ã©ration": 1305,
      "Ġsee": 1306,
      "ins": 1307,
      "day": 1308,
      "omme": 1309,
      "Ġdebate": 1310,
      "Ã©qu": 1311,
      "rit": 1312,
      "Ġcommunaut": 1313,
      "ĠJ": 1314,
      "Ġtem": 1315,
      "ĠW": 1316,
      "Ġorder": 1317,
      "Ġainsi": 1318,
      "Ġwithin": 1319,
      "Ġquestions": 1320,
      "Ġfut": 1321,
      "Ġunder": 1322,
      "ak": 1323,
      "ange": 1324,
      "ĠCommittee": 1325,
      "Ã¹": 1326,
      "Ġconcerne": 1327,
      "anti": 1328,
      "ĠCommissioner": 1329,
      "Ġren": 1330,
      "ivent": 1331,
      "Ġvi": 1332,
      "ellement": 1333,
      "Ġmaj": 1334,
      "not": 1335,
      "Ġprom": 1336,
      "Ġcap": 1337,
      "Ġris": 1338,
      "Ġsav": 1339,
      "ards": 1340,
      "Ġjour": 1341,
      "ful": 1342,
      "read": 1343,
      "Ġcitoy": 1344,
      "Ġsupp": 1345,
      "Ġaction": 1346,
      "ann": 1347,
      "ĠCon": 1348,
      "Ġtransport": 1349,
      "aient": 1350,
      "Ġpense": 1351,
      "Ã¨mes": 1352,
      "Ġmany": 1353,
      "Ġdern": 1354,
      "ĠmaniÃ¨re": 1355,
      "ances": 1356,
      "very": 1357,
      "Ġprof": 1358,
      "Ġtw": 1359,
      "Ġcent": 1360,
      "Ġgroupe": 1361,
      "oth": 1362,
      "Ġrest": 1363,
      "ass": 1364,
      "Ġgouver": 1365,
      "na": 1366,
      "Ġnive": 1367,
      "ll": 1368,
      "atives": 1369,
      "ĠMonsieur": 1370,
      "Ġthink": 1371,
      "Ġwhere": 1372,
      "Ġseu": 1373,
      "tique": 1374,
      "ĠCommunity": 1375,
      "ĠoÃ¹": 1376,
      "auc": 1377,
      "Ġatt": 1378,
      "Ġmeas": 1379,
      "Ġautres": 1380,
      "Ġmajor": 1381,
      "Ġterm": 1382,
      "Ġpra": 1383,
      "Ġeven": 1384,
      "Ġorganis": 1385,
      "onne": 1386,
      "titution": 1387,
      "Ġfund": 1388,
      "Ġwell": 1389,
      "Ġro": 1390,
      "islation": 1391,
      "Ġtoo": 1392,
      "ical": 1393,
      "vers": 1394,
      "Ġsuis": 1395,
      "Ġdoes": 1396,
      "Ġmatter": 1397,
      "Ġview": 1398,
      "vernment": 1399,
      "ĠgÃ©n": 1400,
      "There": 1401,
      "ope": 1402,
      "Ġcannot": 1403,
      "curitÃ©": 1404,
      "ating": 1405,
      "Ġlim": 1406,
      "Ġagainst": 1407,
      "erci": 1408,
      "Ġaujourd": 1409,
      "Ġfra": 1410,
      "ources": 1411,
      "Ġsommes": 1412,
      "Ġwant": 1413,
      "Ġdevelopment": 1414,
      "vre": 1415,
      "ĠprocÃ©d": 1416,
      "Ġtak": 1417,
      "Ġyears": 1418,
      "Ġcadre": 1419,
      "Ġcor": 1420,
      "ĠV": 1421,
      "titutions": 1422,
      "Ġenvironment": 1423,
      "Ġpermet": 1424,
      "ticle": 1425,
      "Ġessenti": 1426,
      "Ġdroit": 1427,
      "Ġ4": 1428,
      "Ġmesures": 1429,
      "Wh": 1430,
      "Ġinformation": 1431,
      "2000": 1432,
      "ĠdiffÃ©r": 1433,
      "Ġprincip": 1434,
      "On": 1435,
      "ature": 1436,
      "ĠsÃ©curitÃ©": 1437,
      "alisation": 1438,
      "rough": 1439,
      "Ã©ra": 1440,
      "Ġhere": 1441,
      "ateurs": 1442,
      "ety": 1443,
      "Mad": 1444,
      "Ġbelieve": 1445,
      "ĠproblÃ¨me": 1446,
      "iÃ¨me": 1447,
      "Ġmont": 1448,
      "Ġend": 1449,
      "cer": 1450,
      "pu": 1451,
      "Ġ5": 1452,
      "Ġgrand": 1453,
      "come": 1454,
      "Ġnum": 1455,
      "ates": 1456,
      "Ġtant": 1457,
      "iers": 1458,
      "Ġsyst": 1459,
      "Ġdiscus": 1460,
      "cond": 1461,
      "Ġeconomic": 1462,
      "Ġdoivent": 1463,
      "itiz": 1464,
      "uch": 1465,
      "rodu": 1466,
      "Ġprior": 1467,
      "Ġservices": 1468,
      "Ġtwo": 1469,
      "Ġcould": 1470,
      "Ġsame": 1471,
      "Ġcourse": 1472,
      "ready": 1473,
      "Ġlevel": 1474,
      "cher": 1475,
      "Ġhigh": 1476,
      "Ġpresent": 1477,
      "Ġmod": 1478,
      "Ġca": 1479,
      "ctives": 1480,
      "Ġdit": 1481,
      "Ġport": 1482,
      "hui": 1483,
      "Ġalready": 1484,
      "Ġniveau": 1485,
      "Ġcontra": 1486,
      "quer": 1487,
      "Ġcet": 1488,
      "Ġrespons": 1489,
      "fe": 1490,
      "Ġagric": 1491,
      "UE": 1492,
      "Ġfav": 1493,
      "reas": 1494,
      "ren": 1495,
      "Ġaur": 1496,
      "eurs": 1497,
      "ack": 1498,
      "Pour": 1499,
      "Ġinternational": 1500,
      "Ġuse": 1501,
      "bli": 1502,
      "fer": 1503,
      "Ġdur": 1504,
      "ĠGr": 1505,
      "ĠmarchÃ©": 1506,
      "Ġleurs": 1507,
      "Ġsein": 1508,
      "ĠMrs": 1509,
      "rÃª": 1510,
      "Ġafin": 1511,
      "Ġinstitutions": 1512,
      "Ġsp": 1513,
      "Ġ;": 1514,
      "abilitÃ©": 1515,
      "ory": 1516,
      "Ġten": 1517,
      "Ġstruct": 1518,
      "cted": 1519,
      "Ġpoints": 1520,
      "Ġfuture": 1521,
      "Ġsouh": 1522,
      "uses": 1523,
      "elf": 1524,
      "go": 1525,
      "Ġcitoyens": 1526,
      "Ġset": 1527,
      "Ġoc": 1528,
      "Ġtemps": 1529,
      "Ġexem": 1530,
      "Ġmost": 1531,
      "ils": 1532,
      "sive": 1533,
      "Ġgood": 1534,
      "larg": 1535,
      "Ġplan": 1536,
      "Ġcitiz": 1537,
      "Ġparce": 1538,
      "ĠdÃ©f": 1539,
      "As": 1540,
      "Ġvue": 1541,
      "Ġconditions": 1542,
      "ited": 1543,
      "Ġevery": 1544,
      "ili": 1545,
      "Ġpolitiques": 1546,
      "Ġnouve": 1547,
      "bility": 1548,
      "That": 1549,
      "dam": 1550,
      "Ġbeh": 1551,
      "Ġhad": 1552,
      "Ġeffet": 1553,
      "ater": 1554,
      "Ġyour": 1555,
      "Ġdra": 1556,
      "Ġresponsi": 1557,
      "Ġdiffic": 1558,
      "prÃ¨s": 1559,
      "amment": 1560,
      "Mais": 1561,
      "Ġpop": 1562,
      "Ġsystem": 1563,
      "Ġmeasures": 1564,
      "cip": 1565,
      "Ġexpl": 1566,
      "Ġcountry": 1567,
      "Ġimplement": 1568,
      "Ġsuff": 1569,
      "till": 1570,
      "Ġans": 1571,
      "How": 1572,
      "eng": 1573,
      "ats": 1574,
      "Ġmay": 1575,
      "Ġown": 1576,
      "ront": 1577,
      "Ġgar": 1578,
      "xt": 1579,
      "Ġincreas": 1580,
      "ality": 1581,
      "Ġdomaine": 1582,
      "nes": 1583,
      "uer": 1584,
      "Ġmuch": 1585,
      "ieu": 1586,
      "Ġach": 1587,
      "ĠdÃ©c": 1588,
      "inion": 1589,
      "ente": 1590,
      "Ġentrepr": 1591,
      "Ġur": 1592,
      "cts": 1593,
      "Ġ2000": 1594,
      "ings": 1595,
      "ĠrÃ¨glement": 1596,
      "Ġsecte": 1597,
      "Ġprogrammes": 1598,
      "Ġeffort": 1599,
      "Ġinf": 1600,
      "Ġret": 1601,
      "dition": 1602,
      "Ġtaken": 1603,
      "ied": 1604,
      "Ġimm": 1605,
      "orld": 1606,
      "Ġfi": 1607,
      "work": 1608,
      "ently": 1609,
      "Ġprojet": 1610,
      "ĠMme": 1611,
      "ual": 1612,
      "Ġsouhait": 1613,
      "Ġsera": 1614,
      "Ġobjectif": 1615,
      "ĠmÃ©": 1616,
      "Ãªtre": 1617,
      "Ġsujet": 1618,
      "Ġconv": 1619,
      "ĠrÃ©f": 1620,
      "Ġstill": 1621,
      "ty": 1622,
      "Ġput": 1623,
      "ild": 1624,
      "he": 1625,
      "erg": 1626,
      "Ġconclu": 1627,
      "Ġeffic": 1628,
      "rÃ©sent": 1629,
      "Ġcommon": 1630,
      "Ġavant": 1631,
      "Ġdou": 1632,
      "Ġthen": 1633,
      "ler": 1634,
      "Ã©rence": 1635,
      "Ġcase": 1636,
      "Ġtex": 1637,
      "Ġspeci": 1638,
      "Ġsaid": 1639,
      "Ġdiffer": 1640,
      "ile": 1641,
      "vision": 1642,
      "quoi": 1643,
      "lem": 1644,
      "Ġph": 1645,
      "ĠrÃ©gion": 1646,
      "Ġhope": 1647,
      "Ġcitizens": 1648,
      "Ġboth": 1649,
      "Ġrev": 1650,
      "ĠcollÃ¨gues": 1651,
      "Ġdemande": 1652,
      "Ġsavoir": 1653,
      "Ġtoday": 1654,
      "Ġjur": 1655,
      "Ġcol": 1656,
      "Ġarea": 1657,
      "Ġpersonnes": 1658,
      "Ġproblem": 1659,
      "Ġmention": 1660,
      "Ġindi": 1661,
      "Ġfon": 1662,
      "ince": 1663,
      "Ġcertains": 1664,
      "ari": 1665,
      "ĠÃ©conomique": 1666,
      "Ġfar": 1667,
      "ret": 1668,
      "Ġgi": 1669,
      "Ġseulement": 1670,
      "Ġtot": 1671,
      "Ġsc": 1672,
      "Ġhel": 1673,
      "Ġful": 1674,
      "ĠAm": 1675,
      "ĠreprÃ©sent": 1676,
      "Ġmom": 1677,
      "Ġtoutes": 1678,
      "Ġlast": 1679,
      "Ġfois": 1680,
      "ules": 1681,
      "tien": 1682,
      "Ġstate": 1683,
      "Ġhis": 1684,
      "ctor": 1685,
      "aines": 1686,
      "Ġemploy": 1687,
      "Ġinterest": 1688,
      "land": 1689,
      "Ġeng": 1690,
      "ĠrÃ©solution": 1691,
      "Ġpass": 1692,
      "Ġinvol": 1693,
      "hing": 1694,
      "autres": 1695,
      "embl": 1696,
      "Ġauc": 1697,
      "Ġthrough": 1698,
      "ĠÃ©le": 1699,
      "ordin": 1700,
      "ip": 1701,
      "Ġactiv": 1702,
      "Ġconsider": 1703,
      "ustri": 1704,
      "dies": 1705,
      "iment": 1706,
      "Ġreas": 1707,
      "Ġexist": 1708,
      "Dans": 1709,
      "Ã¢": 1710,
      "Ġnor": 1711,
      "Ġcurr": 1712,
      "Ġavoir": 1713,
      "Ġabs": 1714,
      "oire": 1715,
      "Ġask": 1716,
      "Ġfinanci": 1717,
      "Ġable": 1718,
      "Ġposi": 1719,
      "Ġwhy": 1720,
      "Ġceux": 1721,
      "lex": 1722,
      "agit": 1723,
      "Ġliber": 1724,
      "Ġautre": 1725,
      "fois": 1726,
      "Ġmoins": 1727,
      "Ġpa": 1728,
      "ablish": 1729,
      "Ġmoment": 1730,
      "'s": 1731,
      "ages": 1732,
      "Ġrap": 1733,
      "Ġadd": 1734,
      "pri": 1735,
      "alf": 1736,
      "sieurs": 1737,
      "ĠSt": 1738,
      "ĠproblÃ¨mes": 1739,
      "ĠconsÃ©qu": 1740,
      "clar": 1741,
      "Par": 1742,
      "ister": 1743,
      "Ġgouvernement": 1744,
      "Ġdeal": 1745,
      "Ġgrande": 1746,
      "aucoup": 1747,
      "Ġexample": 1748,
      "tim": 1749,
      "Ġmil": 1750,
      "row": 1751,
      "Ġimportance": 1752,
      "Ġty": 1753,
      "De": 1754,
      "Ġmoy": 1755,
      "ron": 1756,
      "ĠnÃ©g": 1757,
      "ĠdÃ©put": 1758,
      "Ġsuc": 1759,
      "Ġcompte": 1760,
      "agement": 1761,
      "Ġnumber": 1762,
      "Ġlieu": 1763,
      "Ġdocu": 1764,
      "Ġcooperation": 1765,
      "Ġid": 1766,
      "raph": 1767,
      "However": 1768,
      "alth": 1769,
      "rieur": 1770,
      "iÃ¨rement": 1771,
      "Ġraison": 1772,
      "Ã©li": 1773,
      "Ġbr": 1774,
      "Ġlaw": 1775,
      "Ġopinion": 1776,
      "omen": 1777,
      "Ġensure": 1778,
      "ĠsystÃ¨me": 1779,
      "Ġsol": 1780,
      "Ġchang": 1781,
      "Ġnature": 1782,
      "blig": 1783,
      "Ġfinancial": 1784,
      "tice": 1785,
      "ether": 1786,
      "bilitÃ©": 1787,
      "hor": 1788,
      "irm": 1789,
      "Ġviol": 1790,
      "Ġvoul": 1791,
      "ĠdÃ©mocra": 1792,
      "Ġoff": 1793,
      "tÃ©s": 1794,
      "Ġnecess": 1795,
      "Ġcommune": 1796,
      "Ġestablish": 1797,
      "eral": 1798,
      "Ġresolution": 1799,
      "cisions": 1800,
      "Ġamendments": 1801,
      "Ġbeaucoup": 1802,
      "Ġval": 1803,
      "Ġ200": 1804,
      "Ġsous": 1805,
      "ute": 1806,
      "ouse": 1807,
      "Ġpourquoi": 1808,
      "ela": 1809,
      "Ġmal": 1810,
      "asi": 1811,
      "Ġamendements": 1812,
      "era": 1813,
      "lication": 1814,
      "Ã©ment": 1815,
      "Ġparticip": 1816,
      "Ġprov": 1817,
      "Ġremerci": 1818,
      "action": 1819,
      "Ġpartie": 1820,
      "Ġ1999": 1821,
      "ains": 1822,
      "But": 1823,
      "Ġmeans": 1824,
      "Ġspecific": 1825,
      "Ġjurid": 1826,
      "Ġconst": 1827,
      "Ġinstru": 1828,
      "ount": 1829,
      "Ġparticularly": 1830,
      "oo": 1831,
      "issement": 1832,
      "isse": 1833,
      "Ġrelations": 1834,
      "Ġaspect": 1835,
      "Ġeffective": 1836,
      "Ġgl": 1837,
      "ft": 1838,
      "Ġext": 1839,
      "duc": 1840,
      "Ġareas": 1841,
      "ism": 1842,
      "Ġbase": 1843,
      "Ġrecon": 1844,
      "ollow": 1845,
      "Ġagreement": 1846,
      "elon": 1847,
      "Ġaw": 1848,
      "Ġimpro": 1849,
      "Ġproblems": 1850,
      "Ġress": 1851,
      "Ġpouvoir": 1852,
      "Ġutil": 1853,
      "Ġrepres": 1854,
      "Ġproced": 1855,
      "Ġdemocra": 1856,
      "Ġopport": 1857,
      "bles": 1858,
      "esp": 1859,
      "Ġconsomm": 1860,
      "tiques": 1861,
      "oration": 1862,
      "Ġpropositions": 1863,
      "ĠTur": 1864,
      "Ġsignif": 1865,
      "Ġfour": 1866,
      "Ġcompe": 1867,
      "ines": 1868,
      "Ġsout": 1869,
      "Ġcours": 1870,
      "mit": 1871,
      "iser": 1872,
      "Ġfam": 1873,
      "ef": 1874,
      "Ġgiven": 1875,
      "ird": 1876,
      "dic": 1877,
      "Ġworld": 1878,
      "jours": 1879,
      "Ġ'": 1880,
      "Ġmise": 1881,
      "ÃĢ": 1882,
      "Ġsecond": 1883,
      "Ġautor": 1884,
      "Ġauthor": 1885,
      "Ġlegal": 1886,
      "Ġmettre": 1887,
      "quelle": 1888,
      "Ġserait": 1889,
      "Ġprocessus": 1890,
      "Ġexemple": 1891,
      "Ġlaquelle": 1892,
      "ĠcoopÃ©ration": 1893,
      "Ġcompr": 1894,
      "Ġfonction": 1895,
      "ĠprÃ©v": 1896,
      "ude": 1897,
      "own": 1898,
      "ĠcontrÃ´le": 1899,
      "Ġbes": 1900,
      "Ġbefore": 1901,
      "Ġtoujours": 1902,
      "Ġsoul": 1903,
      "Ġloc": 1904,
      "If": 1905,
      "Ġinitiative": 1906,
      "Ġprincipe": 1907,
      "Ġ6": 1908,
      "Ġinclud": 1909,
      "tement": 1910,
      "Ġappli": 1911,
      "rol": 1912,
      "ability": 1913,
      "Ġstand": 1914,
      "ep": 1915,
      "Ġfondament": 1916,
      "ĠGroup": 1917,
      "Ġintrodu": 1918,
      "ĠU": 1919,
      "lle": 1920,
      "Ġterms": 1921,
      "urer": 1922,
      "entif": 1923,
      "Ġciv": 1924,
      "Ġgive": 1925,
      "Ġaccept": 1926,
      "ira": 1927,
      "Ġsuiv": 1928,
      "Ã©m": 1929,
      "Ġcri": 1930,
      "Ġfollow": 1931,
      "ĠPro": 1932,
      "ition": 1933,
      "sidence": 1934,
      "Ġachieve": 1935,
      "ĠspÃ©": 1936,
      "Ġregion": 1937,
      "ĠCommissaire": 1938,
      "Ġaf": 1939,
      "Ġcre": 1940,
      "ouve": 1941,
      "Si": 1942,
      "Ġwithout": 1943,
      "Ġissues": 1944,
      "irc": 1945,
      "Ġfl": 1946,
      "Ġuvre": 1947,
      "ood": 1948,
      "Ġple": 1949,
      "Ġwish": 1950,
      "Ġils": 1951,
      "Ġoblig": 1952,
      "ĠdÃ©cision": 1953,
      "puis": 1954,
      "Ġgaranti": 1955,
      "ry": 1956,
      "ĠÃ©c": 1957,
      "Ġconcerned": 1958,
      "Ġinst": 1959,
      "Ġgra": 1960,
      "atif": 1961,
      "Ġfem": 1962,
      "Ġici": 1963,
      "Ġnecessary": 1964,
      "alog": 1965,
      "Ġattention": 1966,
      "Ġcommer": 1967,
      "Ġsoient": 1968,
      "Ã©v": 1969,
      "Ġparticulier": 1970,
      "Ġrefer": 1971,
      "Ġtechnolog": 1972,
      "Ġsecteur": 1973,
      "issance": 1974,
      "Ġhowever": 1975,
      "Ġnouvelle": 1976,
      "Ġ%": 1977,
      "Ġsince": 1978,
      "ĠPrÃ©sidente": 1979,
      "ately": 1980,
      "Ġconcernant": 1981,
      "ĠMes": 1982,
      "Ġadmin": 1983,
      "erc": 1984,
      "Ġrequire": 1985,
      "Ġcompeti": 1986,
      "Ġlui": 1987,
      "Ġclos": 1988,
      "Ġcolle": 1989,
      "per": 1990,
      "Ġallow": 1991,
      "Cela": 1992,
      "Ġserious": 1993,
      "entes": 1994,
      "idency": 1995,
      "Ġke": 1996,
      "ĠnÃ©cessaire": 1997,
      "Ġcommunautaire": 1998,
      "Ã§on": 1999,
      "ck": 2000,
      "Ġmis": 2001,
      "ĠHouse": 2002,
      "bour": 2003,
      "tant": 2004,
      "Ġrecomm": 2005,
      "ĠcompÃ©": 2006,
      "lÃ©ment": 2007,
      "Ġtrois": 2008,
      "rons": 2009,
      "Ġtax": 2010,
      "ordre": 2011,
      "ital": 2012,
      "Ġbl": 2013,
      "Ġwhether": 2014,
      "aly": 2015,
      "Ġclaire": 2016,
      "Ġpriv": 2017,
      "Ġnotamment": 2018,
      "ĠdÃ©fin": 2019,
      "ension": 2020,
      "Ġbehalf": 2021,
      "Ġprinciple": 2022,
      "Ġprendre": 2023,
      "emblÃ©e": 2024,
      "Ġtranspar": 2025,
      "Ġefforts": 2026,
      "Ġsolution": 2027,
      "igr": 2028,
      "Ġnu": 2029,
      "ression": 2030,
      "Ġentreprises": 2031,
      "Ġvotre": 2032,
      "Ġopp": 2033,
      "Ġsm": 2034,
      "Ġmonde": 2035,
      "Ġfur": 2036,
      "Ġdecision": 2037,
      "ĠprÃ©sident": 2038,
      "ĠprÃ©sidence": 2039,
      "ru": 2040,
      "Ġvic": 2041,
      "art": 2042,
      "Ġlut": 2043,
      "Ġconsum": 2044,
      "Ġculture": 2045,
      "ĠeuropÃ©ens": 2046,
      "ĠannÃ©es": 2047,
      "Ġpouvons": 2048,
      "alogue": 2049,
      "ĠMembers": 2050,
      "Ġexpress": 2051,
      "Ġfew": 2052,
      "ĠUn": 2053,
      "Ġsens": 2054,
      "ĠsociÃ©": 2055,
      "ĠLe": 2056,
      "Ġfer": 2057,
      "Ġz": 2058,
      "ffic": 2059,
      "Ġmainten": 2060,
      "homme": 2061,
      "Ġpubli": 2062,
      "Qu": 2063,
      "cy": 2064,
      "Ġappropri": 2065,
      "ateg": 2066,
      "Ġwhole": 2067,
      "co": 2068,
      "Ġlarge": 2069,
      "Ġmodi": 2070,
      "rimin": 2071,
      "Ġrenfor": 2072,
      "Ġcommunication": 2073,
      "ning": 2074,
      "ĠdÃ©clar": 2075,
      "Ġcha": 2076,
      "cept": 2077,
      "quel": 2078,
      "accord": 2079,
      "Ġsociale": 2080,
      "Ġconstru": 2081,
      "atÃ©g": 2082,
      "Ġsouten": 2083,
      "als": 2084,
      "Ġservice": 2085,
      "Ġenvironnement": 2086,
      "Ġglob": 2087,
      "iens": 2088,
      "Ġactions": 2089,
      "Ġ8": 2090,
      "Ġvol": 2091,
      "Ġquelques": 2092,
      "Ġdec": 2093,
      "Ġextre": 2094,
      "isme": 2095,
      "Ġfre": 2096,
      "Ġdevrait": 2097,
      "ĠaprÃ¨s": 2098,
      "Ġhand": 2099,
      "vious": 2100,
      "Ġprogress": 2101,
      "01": 2102,
      "Ġpay": 2103,
      "com": 2104,
      "Ġ7": 2105,
      "Ġwomen": 2106,
      "ĠrÃ©du": 2107,
      "Ġcoordin": 2108,
      "Ġrepresent": 2109,
      "Ġproposals": 2110,
      "ised": 2111,
      "Ġadopted": 2112,
      "Ġplu": 2113,
      "curity": 2114,
      "pendant": 2115,
      "soci": 2116,
      "Ġlead": 2117,
      "Ġcommit": 2118,
      "ĠfaÃ§on": 2119,
      "su": 2120,
      "elves": 2121,
      "nent": 2122,
      "aise": 2123,
      "Ġcirc": 2124,
      "Ġlegislation": 2125,
      "oint": 2126,
      "ared": 2127,
      "ĠÃ©tait": 2128,
      "Ġ9": 2129,
      "Ġpo": 2130,
      "ploi": 2131,
      "reaty": 2132,
      "estion": 2133,
      "Ġrece": 2134,
      "Ġpeuvent": 2135,
      "side": 2136,
      "osov": 2137,
      "Ġnouveau": 2138,
      "Ġconna": 2139,
      "ssemblÃ©e": 2140,
      "Ġalors": 2141,
      "Ġdifferent": 2142,
      "Ġcrois": 2143,
      "ustry": 2144,
      "gment": 2145,
      "ĠNo": 2146,
      "Ġsatis": 2147,
      "Ġcoh": 2148,
      "oci": 2149,
      "Ġbasis": 2150,
      "Ġcontinue": 2151,
      "Ġconte": 2152,
      "Ġsoutien": 2153,
      "Ġcommissaire": 2154,
      "Ġsubst": 2155,
      "ĠdÃ©l": 2156,
      "mework": 2157,
      "ote": 2158,
      "Ġinde": 2159,
      "Ġmesure": 2160,
      "ĠKosov": 2161,
      "Ġstat": 2162,
      "ĠfÃ©": 2163,
      "Ġlib": 2164,
      "ĠrÃ©sul": 2165,
      "sible": 2166,
      "Ġenvironmental": 2167,
      "gg": 2168,
      "Ġvra": 2169,
      "antÃ©": 2170,
      "Ġsector": 2171,
      "Ġsatisf": 2172,
      "ĠrÃ©gions": 2173,
      "ulations": 2174,
      "ĠdÃ©putÃ©s": 2175,
      "Ġhealth": 2176,
      "Ġurg": 2177,
      "oit": 2178,
      "Ġsubject": 2179,
      "Ġele": 2180,
      "Ġcome": 2181,
      "Ġdialogue": 2182,
      "airs": 2183,
      "Ġfish": 2184,
      "vement": 2185,
      "Ġloo": 2186,
      "pecial": 2187,
      "issent": 2188,
      "Ã©rÃ©": 2189,
      "Ġdispos": 2190,
      "Ġban": 2191,
      "Ġtour": 2192,
      "Ġface": 2193,
      "Ġtrop": 2194,
      "Cette": 2195,
      "ĠCour": 2196,
      "An": 2197,
      "Madame": 2198,
      "Ġfemmes": 2199,
      "Ġmeet": 2200,
      "ĠlÃł": 2201,
      "ĠrÃ´le": 2202,
      "ĠsantÃ©": 2203,
      "Ġ19": 2204,
      "ĠpremiÃ¨re": 2205,
      "Ġjuridique": 2206,
      "ase": 2207,
      "Ġcomment": 2208,
      "Ġmilit": 2209,
      "Ġharm": 2210,
      "raient": 2211,
      "cell": 2212,
      "Ġshall": 2213,
      "Ġword": 2214,
      "Ġfavour": 2215,
      "Ġproposed": 2216,
      "Ġpopulation": 2217,
      "Ġlet": 2218,
      "Ġparties": 2219,
      "ather": 2220,
      "Ġindivid": 2221,
      "Ġcand": 2222,
      "Ġoffic": 2223,
      "Ġhelp": 2224,
      "usement": 2225,
      "ĠMad": 2226,
      "amental": 2227,
      "serv": 2228,
      "ĠRe": 2229,
      "Ġcall": 2230,
      "oute": 2231,
      "Ġconstitu": 2232,
      "ĠTreaty": 2233,
      "Ġreform": 2234,
      "Ġrapid": 2235,
      "Ġcandid": 2236,
      "Ãªche": 2237,
      "leurs": 2238,
      "usion": 2239,
      "ĠprocÃ©dure": 2240,
      "ducation": 2241,
      "Ġthank": 2242,
      "intÃ©": 2243,
      "Ġconcurr": 2244,
      "What": 2245,
      "ĠKosovo": 2246,
      "aill": 2247,
      "alk": 2248,
      "Ġregulation": 2249,
      "Ġinte": 2250,
      "Ġproject": 2251,
      "olutions": 2252,
      "ĠUnited": 2253,
      "Ġfurther": 2254,
      "Ġunique": 2255,
      "Ġmillions": 2256,
      "ĠfÃ©lic": 2257,
      "euro": 2258,
      "Ġimpos": 2259,
      "ĠnÃ©goci": 2260,
      "entlem": 2261,
      "Ġnext": 2262,
      "Ġhapp": 2263,
      "ward": 2264,
      "Ġwel": 2265,
      "eld": 2266,
      "Ġpositive": 2267,
      "199": 2268,
      "ties": 2269,
      "Ġdepuis": 2270,
      "erst": 2271,
      "Ġencour": 2272,
      "goti": 2273,
      "Ġprovid": 2274,
      "Ġgentlem": 2275,
      "amp": 2276,
      "Ġstructure": 2277,
      "environ": 2278,
      "Ġeu": 2279,
      "Ġquite": 2280,
      "vant": 2281,
      "Ġselon": 2282,
      "ets": 2283,
      "ieux": 2284,
      "Ġmeille": 2285,
      "Ġpuis": 2286,
      "ateur": 2287,
      "antes": 2288,
      "Ġcontrol": 2289,
      "Ġsoulign": 2290,
      "Ġgentlemen": 2291,
      "Ġframework": 2292,
      "Ġcelui": 2293,
      "Ġreason": 2294,
      "arante": 2295,
      "orer": 2296,
      "Ġdone": 2297,
      "Ġtype": 2298,
      "Ġste": 2299,
      "Ġsus": 2300,
      "Ġremar": 2301,
      "heure": 2302,
      "tout": 2303,
      "Ġnation": 2304,
      "ĠState": 2305,
      "wards": 2306,
      "ĠsÃ»": 2307,
      "opp": 2308,
      "Ġclearly": 2309,
      "Ġbesoin": 2310,
      "omet": 2311,
      "Ġextrem": 2312,
      "Ġsci": 2313,
      "Ġvers": 2314,
      "ager": 2315,
      "ĠintÃ©rÃª": 2316,
      "ĠgÃ©nÃ©r": 2317,
      "Ġnegoti": 2318,
      "Ã´t": 2319,
      "Ġreal": 2320,
      "ications": 2321,
      "Ġrecher": 2322,
      "ultural": 2323,
      "ĠspÃ©ci": 2324,
      "Ġelles": 2325,
      "inter": 2326,
      "Ġproch": 2327,
      "ĠFr": 2328,
      "prim": 2329,
      "ey": 2330,
      "Ġbon": 2331,
      "endu": 2332,
      "Ġchild": 2333,
      "Ġaddition": 2334,
      "Au": 2335,
      "old": 2336,
      "Ġforce": 2337,
      "Ġproduction": 2338,
      "Ġdiscussion": 2339,
      "ĠAr": 2340,
      "ĠrÃ©sultat": 2341,
      "Ġresult": 2342,
      "Ġmoi": 2343,
      "pecially": 2344,
      "environnement": 2345,
      "Ġesp": 2346,
      "Ġjustice": 2347,
      "Ã©sion": 2348,
      "Ġsurtout": 2349,
      "Ġworking": 2350,
      "Ġva": 2351,
      "Ġgoing": 2352,
      "Ġindustry": 2353,
      "Ġabsolu": 2354,
      "aff": 2355,
      "Ġequ": 2356,
      "ends": 2357,
      "ĠsÃ©rie": 2358,
      "cing": 2359,
      "Ġaim": 2360,
      "veur": 2361,
      "ĠprÃ©cis": 2362,
      "Ġfran": 2363,
      "ĠÃ©l": 2364,
      "Ġapproach": 2365,
      "Ġvicti": 2366,
      "Ġexper": 2367,
      "Ġespecially": 2368,
      "Ġdiscuss": 2369,
      "Ġpow": 2370,
      "Ġfind": 2371,
      "Ġdiscrimin": 2372,
      "Ġaffe": 2373,
      "ways": 2374,
      "Ġide": 2375,
      "Ġrole": 2376,
      "Ġback": 2377,
      "Ġfaveur": 2378,
      "ible": 2379,
      "tie": 2380,
      "Ġinves": 2381,
      "Ġexig": 2382,
      "istes": 2383,
      "Ġaccount": 2384,
      "Ġcommittee": 2385,
      "Ġresources": 2386,
      "Ġinstitution": 2387,
      "ĠlÃ©gislation": 2388,
      "Ġcelle": 2389,
      "ath": 2390,
      "Ġmondi": 2391,
      "Ġorganisations": 2392,
      "entr": 2393,
      "ĠsociÃ©tÃ©": 2394,
      "ode": 2395,
      "Ġfonds": 2396,
      "ĠChar": 2397,
      "Ġguarante": 2398,
      "fety": 2399,
      "Ġorig": 2400,
      "ĠdÃ¨s": 2401,
      "Ġproduits": 2402,
      "Ã©taire": 2403,
      "ank": 2404,
      "Ġben": 2405,
      "ĠparticuliÃ¨rement": 2406,
      "tiss": 2407,
      "Ġcause": 2408,
      "Ġconstit": 2409,
      "Ġagree": 2410,
      "Ġopen": 2411,
      "occu": 2412,
      "ĠpÃªche": 2413,
      "Ã©rer": 2414,
      "orth": 2415,
      "omething": 2416,
      "Ġni": 2417,
      "ĠMin": 2418,
      "Ġsemble": 2419,
      "Ġgestion": 2420,
      "tin": 2421,
      "oses": 2422,
      "edom": 2423,
      "Ġpeace": 2424,
      "Ġchaque": 2425,
      "Ġchange": 2426,
      "Ġpris": 2427,
      "hip": 2428,
      "Ġsport": 2429,
      "Ġredu": 2430,
      "Ġaspects": 2431,
      "ze": 2432,
      "ĠdÃ©ch": 2433,
      "Ġemployment": 2434,
      "Ġcompan": 2435,
      "Ġafter": 2436,
      "Ġsan": 2437,
      "Ġrules": 2438,
      "ĠAf": 2439,
      "casion": 2440,
      "Ġ1998": 2441,
      "Ġamb": 2442,
      "Ġcomprom": 2443,
      "For": 2444,
      "Ġcomple": 2445,
      "Ġused": 2446,
      "Ġmois": 2447,
      "Ġsociety": 2448,
      "ying": 2449,
      "Ġsomething": 2450,
      "Ġdirect": 2451,
      "avant": 2452,
      "Ġjustif": 2453,
      "iÃ¨res": 2454,
      "Ġpourrait": 2455,
      "Ġjud": 2456,
      "Ġcrimin": 2457,
      "Ġextremely": 2458,
      "quÃ©": 2459,
      "Ġdocument": 2460,
      "Ġexcl": 2461,
      "Ġunderst": 2462,
      "uge": 2463,
      "ception": 2464,
      "gration": 2465,
      "Ġdown": 2466,
      "Ġconcurrence": 2467,
      "ĠrÃ©for": 2468,
      "Ġappr": 2469,
      "trib": 2470,
      "Ġoper": 2471,
      "Madam": 2472,
      "Ġcal": 2473,
      "entre": 2474,
      "enda": 2475,
      "\".": 2476,
      "omp": 2477,
      "Ġobjectifs": 2478,
      "Ġrather": 2479,
      "ĠConvention": 2480,
      "Ġduring": 2481,
      "Ġpens": 2482,
      "1999": 2483,
      "Ġmillion": 2484,
      "Ã©l": 2485,
      "Ġvar": 2486,
      "inform": 2487,
      "Ġbi": 2488,
      "ĠÃ©qu": 2489,
      "Ġbonne": 2490,
      "aide": 2491,
      "ras": 2492,
      "Ġfinance": 2493,
      "ĠamÃ©li": 2494,
      "Ġitself": 2495,
      "gu": 2496,
      "isb": 2497,
      "Ġgeneral": 2498,
      "ĠqualitÃ©": 2499,
      "Ġsen": 2500,
      "Ġsafety": 2501,
      "agne": 2502,
      "anger": 2503,
      "Ġresponsibility": 2504,
      "Ġclairement": 2505,
      "leg": 2506,
      "Ġher": 2507,
      "Ġthird": 2508,
      "Ġexcell": 2509,
      "ĠresponsabilitÃ©": 2510,
      "ĠDe": 2511,
      "other": 2512,
      "Ġprovide": 2513,
      "ium": 2514,
      "amend": 2515,
      "Ġ15": 2516,
      "Ġdonner": 2517,
      "ours": 2518,
      "Ġcertaines": 2519,
      "Ġtowards": 2520,
      "Ġforward": 2521,
      "Ġbetter": 2522,
      "tain": 2523,
      "ĠLisb": 2524,
      "Ġaucun": 2525,
      "aking": 2526,
      "mis": 2527,
      "part": 2528,
      "ez": 2529,
      "Ġlutte": 2530,
      "int": 2531,
      "Ġparlement": 2532,
      "Ġchose": 2533,
      "Ġterrit": 2534,
      "Ġladies": 2535,
      "Ġrele": 2536,
      "Ġarri": 2537,
      "Ġnouvelles": 2538,
      "ave": 2539,
      "Ġsecurity": 2540,
      "ĠIt": 2541,
      "Ġatte": 2542,
      "Ġread": 2543,
      "rions": 2544,
      "ĠrÃ©alis": 2545,
      "Ġterme": 2546,
      "Ġcoordination": 2547,
      "Ġdefin": 2548,
      "These": 2549,
      "pt": 2550,
      "ĠEuro": 2551,
      "Ġavis": 2552,
      "Ġgovern": 2553,
      "Ġthree": 2554,
      "termin": 2555,
      "Ã©rit": 2556,
      "ĠIntern": 2557,
      "acitÃ©": 2558,
      "Ã®t": 2559,
      "Ġseront": 2560,
      "Ġgovernment": 2561,
      "ian": 2562,
      "ĠAmend": 2563,
      "Ġact": 2564,
      "Ġjou": 2565,
      "imes": 2566,
      "ub": 2567,
      "igne": 2568,
      "Ġspeak": 2569,
      "Ġvoulons": 2570,
      "ib": 2571,
      "ĠtraitÃ©": 2572,
      "anc": 2573,
      "Ġconstitue": 2574,
      "bab": 2575,
      "rent": 2576,
      "ocr": 2577,
      "iterran": 2578,
      "CO": 2579,
      "Ġenf": 2580,
      "Ġcompetition": 2581,
      "Ġfeel": 2582,
      "iness": 2583,
      "Ġsmall": 2584,
      "Ġstrateg": 2585,
      "att": 2586,
      "Ġmoney": 2587,
      "Ġdifficult": 2588,
      "ness": 2589,
      "Ġshort": 2590,
      "istance": 2591,
      "ĠPresidency": 2592,
      "Ġlimit": 2593,
      "Ġtelle": 2594,
      "Ġjusqu": 2595,
      "Ġap": 2596,
      "ĠpÃ©ri": 2597,
      "though": 2598,
      "Ġharmon": 2599,
      "jou": 2600,
      "Ġhon": 2601,
      "Ã¨te": 2602,
      "tical": 2603,
      "Ġtrain": 2604,
      "Ġir": 2605,
      "Ġget": 2606,
      "Ġfais": 2607,
      "Ġbre": 2608,
      "Ġfourn": 2609,
      "Ġapplication": 2610,
      "Ġneeds": 2611,
      "ĠAff": 2612,
      "Ġair": 2613,
      "Ġpropose": 2614,
      "iner": 2615,
      "Ġeach": 2616,
      "ily": 2617,
      "Ġ12": 2618,
      "idence": 2619,
      "They": 2620,
      "Ġpolicies": 2621,
      "ĠlÃ©gisl": 2622,
      "Ġsugg": 2623,
      "ĠstratÃ©g": 2624,
      "Ġ!": 2625,
      "Ġsal": 2626,
      "ĠFund": 2627,
      "Ġconsommateurs": 2628,
      "itor": 2629,
      "Ġleast": 2630,
      "ogn": 2631,
      "Ġvarious": 2632,
      "Ġreally": 2633,
      "Ġrelative": 2634,
      "Ġwelcome": 2635,
      "Ġconse": 2636,
      "Ġdid": 2637,
      "Ġtable": 2638,
      "esse": 2639,
      "Ġonce": 2640,
      "Ġressources": 2641,
      "ĠTra": 2642,
      "Ġindustri": 2643,
      "Et": 2644,
      "Ã¶": 2645,
      "Ġcombat": 2646,
      "Ġmaking": 2647,
      "Ġexiste": 2648,
      "fi": 2649,
      "ole": 2650,
      "ĠSw": 2651,
      "por": 2652,
      "ĠrÃ©glement": 2653,
      "istr": 2654,
      "Ġassoci": 2655,
      "Ġrecogn": 2656,
      "ĠnÃ©cessitÃ©": 2657,
      "Ġfavor": 2658,
      "tely": 2659,
      "Ġnombreux": 2660,
      "Ġcorre": 2661,
      "erv": 2662,
      "ĠCommun": 2663,
      "ession": 2664,
      "ortug": 2665,
      "ĠsÃ»r": 2666,
      "Ġbu": 2667,
      "Ã©nÃ©": 2668,
      "Ġdivers": 2669,
      "ĠrÃ¨gles": 2670,
      "rich": 2671,
      "ĠintÃ©rieur": 2672,
      "Ġpremier": 2673,
      "Ġregions": 2674,
      "Al": 2675,
      "Ġpoll": 2676,
      "aix": 2677,
      "Ġunderstand": 2678,
      "Ã©lÃ©": 2679,
      "ĠdÃ©s": 2680,
      "Ġcontribution": 2681,
      "Ġauthorities": 2682,
      "omb": 2683,
      "Ġless": 2684,
      "Ġprocedure": 2685,
      "Ġcondu": 2686,
      "abit": 2687,
      "Ġseem": 2688,
      "ĠAssemblÃ©e": 2689,
      "Ġdifficul": 2690,
      "Ġpaix": 2691,
      "espÃ¨re": 2692,
      "Ġvig": 2693,
      "Ġinvolved": 2694,
      "ĠcoÃ»": 2695,
      "titude": 2696,
      "ĠPortug": 2697,
      "Ġpoursu": 2698,
      "erre": 2699,
      "Ġanother": 2700,
      "ĠautoritÃ©s": 2701,
      "Ġimportante": 2702,
      "Ġbus": 2703,
      "urn": 2704,
      "Ġ20": 2705,
      "ĠGo": 2706,
      "nements": 2707,
      "abord": 2708,
      "Ġgarantir": 2709,
      "Ġchers": 2710,
      "Ġgreater": 2711,
      "ĠMadame": 2712,
      "Ġjob": 2713,
      "aboration": 2714,
      "ĠSch": 2715,
      "unes": 2716,
      "Ġmoyens": 2717,
      "agraph": 2718,
      "ĠprÃ©occu": 2719,
      "Ġdemander": 2720,
      "ventions": 2721,
      "Ġrepr": 2722,
      "Ġmaintenant": 2723,
      "Ġgrow": 2724,
      "Ġfundamental": 2725,
      "Ġbecome": 2726,
      "Une": 2727,
      "Ġqual": 2728,
      "Ġvale": 2729,
      "cem": 2730,
      "ĠrÃ©pond": 2731,
      "Ġmed": 2732,
      "Ġcontinu": 2733,
      "Ġsignific": 2734,
      "gin": 2735,
      "ĠSe": 2736,
      "Ġinternation": 2737,
      "Ġefficace": 2738,
      "Ġinterests": 2739,
      "Ġanim": 2740,
      "Ġtravaill": 2741,
      "Ġbudg": 2742,
      "Ġrecherche": 2743,
      "Ġreconna": 2744,
      "So": 2745,
      "Ġexprim": 2746,
      "ivre": 2747,
      "Ġplusieurs": 2748,
      "aps": 2749,
      "Ġtoget": 2750,
      "Ġvoir": 2751,
      "ĠrÃ©ponse": 2752,
      "Ġtogether": 2753,
      "Ġconcerns": 2754,
      "aluation": 2755,
      "Ġenlarg": 2756,
      "orm": 2757,
      "teurs": 2758,
      "Ġmembre": 2759,
      "ĠEUR": 2760,
      "Ġaura": 2761,
      "largissement": 2762,
      "igration": 2763,
      "Ġincrease": 2764,
      "iod": 2765,
      "Ġalways": 2766,
      "Ġ10": 2767,
      "Ġopportunity": 2768,
      "ĠArticle": 2769,
      "Ãītat": 2770,
      "ussions": 2771,
      "Ġfore": 2772,
      "Ġoutre": 2773,
      "Ġkind": 2774,
      "Ġperiod": 2775,
      "Ġorigin": 2776,
      "grÃ©": 2777,
      "Ġ000": 2778,
      "Ġdet": 2779,
      "Ġintervention": 2780,
      "Ġincluding": 2781,
      "Ġessential": 2782,
      "Ġfix": 2783,
      "ption": 2784,
      "Ã©p": 2785,
      "ustrie": 2786,
      "ĠdiffÃ©rents": 2787,
      "amendement": 2788,
      "cÃ¨s": 2789,
      "Ġclar": 2790,
      "Ġhist": 2791,
      "Ġprevent": 2792,
      "ĠEn": 2793,
      "Ġappar": 2794,
      "Ġfreedom": 2795,
      "Ġscientif": 2796,
      "Ġexerc": 2797,
      "Ġ11": 2798,
      "ĠeuropÃ©ennes": 2799,
      "Ġbusiness": 2800,
      "ger": 2801,
      "mÃªme": 2802,
      "Ġlang": 2803,
      "Ã®tre": 2804,
      "Ġfull": 2805,
      "ensemble": 2806,
      "ĠAl": 2807,
      "atique": 2808,
      "Ġven": 2809,
      "Ġfight": 2810,
      "Ġfacil": 2811,
      "cteurs": 2812,
      "Ġminor": 2813,
      "ĠdeuxiÃ¨me": 2814,
      "Ġprojets": 2815,
      "Ġaware": 2816,
      "ĠbÃ©nÃ©": 2817,
      "Ġregret": 2818,
      "Ġwar": 2819,
      "oph": 2820,
      "ĠdonnÃ©": 2821,
      "Ġanaly": 2822,
      "Ġlesqu": 2823,
      "Ġavail": 2824,
      "time": 2825,
      "ĠNations": 2826,
      "ĠFrance": 2827,
      "ule": 2828,
      "Ġsolid": 2829,
      "ial": 2830,
      "Ġai": 2831,
      "article": 2832,
      "ches": 2833,
      "Ġlook": 2834,
      "ĠAffairs": 2835,
      "Ġcreat": 2836,
      "ulate": 2837,
      "Ġinitiatives": 2838,
      "Ġmonth": 2839,
      "Ġaugment": 2840,
      "trÃªme": 2841,
      "At": 2842,
      "Ġsuccess": 2843,
      "ĠRights": 2844,
      "Ġremercier": 2845,
      "ider": 2846,
      "Ġcertainly": 2847,
      "Ġmor": 2848,
      "Ġfarm": 2849,
      "ried": 2850,
      "kes": 2851,
      "ls": 2852,
      "Ġsem": 2853,
      "imum": 2854,
      "Ġtaking": 2855,
      "Ġbased": 2856,
      "ĠThe": 2857,
      "Ġpen": 2858,
      "thing": 2859,
      "Ġait": 2860,
      "utes": 2861,
      "Ġcurrent": 2862,
      "Ġmanagement": 2863,
      "Ġdirectives": 2864,
      "Ġsouvent": 2865,
      "vi": 2866,
      "enne": 2867,
      "Ġapport": 2868,
      "ĠcollÃ¨gue": 2869,
      "Elle": 2870,
      "ĠME": 2871,
      "ocol": 2872,
      "Ġavez": 2873,
      "ĠadoptÃ©": 2874,
      "Ġdemocratic": 2875,
      "Ġdiscrimination": 2876,
      "tent": 2877,
      "Ġill": 2878,
      "Ġparagraph": 2879,
      "Ġinternal": 2880,
      "Ġdef": 2881,
      "fication": 2882,
      "You": 2883,
      "Ġdel": 2884,
      "ĠdÃ©cisions": 2885,
      "Ġreste": 2886,
      "autre": 2887,
      "Ġtexte": 2888,
      "Ġpublique": 2889,
      "Ġexcellent": 2890,
      "Fin": 2891,
      "Ġcongr": 2892,
      "Ġeconomy": 2893,
      "Ġenti": 2894,
      "Ġupon": 2895,
      "Ġrappel": 2896,
      "Ġcontribu": 2897,
      "Ġbo": 2898,
      "Ġplay": 2899,
      "Ġobjective": 2900,
      "rench": 2901,
      "Ġutilis": 2902,
      "Ġcompanies": 2903,
      "Ġdernier": 2904,
      "Ġavait": 2905,
      "uve": 2906,
      "Ġbal": 2907,
      "Ġquelque": 2908,
      "atic": 2909,
      "Ġlequel": 2910,
      "ĠÃ©ch": 2911,
      "Ġpost": 2912,
      "..": 2913,
      "Ġsorte": 2914,
      "Ġperspe": 2915,
      "Ġrequest": 2916,
      "Ġanti": 2917,
      "Ġracis": 2918,
      "ock": 2919,
      "Ġproducts": 2920,
      "Ġinstrument": 2921,
      "Ġsing": 2922,
      "emploi": 2923,
      "Ġgroupes": 2924,
      "ference": 2925,
      "util": 2926,
      "qui": 2927,
      "import": 2928,
      "rem": 2929,
      "issant": 2930,
      "autÃ©": 2931,
      "ĠFrench": 2932,
      "Ġcivil": 2933,
      "Se": 2934,
      "avenir": 2935,
      "Ġrien": 2936,
      "ĠrÃ©un": 2937,
      "Ġimplementation": 2938,
      "Ġsec": 2939,
      "Ġenfants": 2940,
      "Ġenlargement": 2941,
      "Ġcongrat": 2942,
      "Ġcru": 2943,
      "Ġoften": 2944,
      "ĠdÃ©b": 2945,
      "ght": 2946,
      "Ġlocal": 2947,
      "Ġindividual": 2948,
      "Ġconclusions": 2949,
      "ists": 2950,
      "Ġtrade": 2951,
      "Ġaucune": 2952,
      "ĠgÃ©nÃ©ral": 2953,
      "Ġdanger": 2954,
      "Ã©c": 2955,
      "Ġchoses": 2956,
      "Ġwords": 2957,
      "ĠbÃ©nÃ©fic": 2958,
      "Ġreach": 2959,
      "ĠvÃ©rit": 2960,
      "Ġresear": 2961,
      "Ġprix": 2962,
      "Ġensemble": 2963,
      "Ġbenef": 2964,
      "Ġaille": 2965,
      "Ġyet": 2966,
      "Ġobjectives": 2967,
      "Ãªte": 2968,
      "ĠAustri": 2969,
      "Ġresearch": 2970,
      "Ġtas": 2971,
      "ĠÃ©tr": 2972,
      "ĠAn": 2973,
      "Ġmajority": 2974,
      "Ġchildren": 2975,
      "ĠGovernment": 2976,
      "ove": 2977,
      "ples": 2978,
      "ended": 2979,
      "ĠFe": 2980,
      "Ġsubsi": 2981,
      "Ġengag": 2982,
      "Ġmul": 2983,
      "eless": 2984,
      "Ġagenda": 2985,
      "ick": 2986,
      "ceed": 2987,
      "man": 2988,
      "And": 2989,
      "ĠannÃ©e": 2990,
      "ength": 2991,
      "Ġfield": 2992,
      "Ces": 2993,
      "ither": 2994,
      "Ġperson": 2995,
      "Ġappe": 2996,
      "Ġquant": 2997,
      "Ġimprove": 2998,
      "ĠMessieurs": 2999,
      "resp": 3000,
      "accept": 3001,
      "Ġconcl": 3002,
      "ĠpossibilitÃ©": 3003,
      "Ġcommerce": 3004,
      "Ġpress": 3005,
      "aritÃ©": 3006,
      "Ġbring": 3007,
      "ĠderniÃ¨re": 3008,
      "Ġmembers": 3009,
      "Ġavailable": 3010,
      "Ġquality": 3011,
      "Ġhaving": 3012,
      "ĠAfric": 3013,
      "ade": 3014,
      "Ġrail": 3015,
      "haps": 3016,
      "Ġrural": 3017,
      "udes": 3018,
      "First": 3019,
      "ew": 3020,
      "gence": 3021,
      "Ġdecisions": 3022,
      "terdam": 3023,
      "Ġaccess": 3024,
      "Ġaddress": 3025,
      "Ġparticipation": 3026,
      "Ġfollowing": 3027,
      "Ġreceive": 3028,
      "Ġmean": 3029,
      "Ġinvest": 3030,
      "Ġgroups": 3031,
      "Ġsimply": 3032,
      "Ġhappen": 3033,
      "fort": 3034,
      "ograph": 3035,
      "Ġdomaines": 3036,
      "Ġevent": 3037,
      "Ġwater": 3038,
      "Ġfort": 3039,
      "Ãªmes": 3040,
      "Ġtraffic": 3041,
      "Ġvolont": 3042,
      "rely": 3043,
      "ĠcrÃ©ation": 3044,
      "Ġresponsible": 3045,
      "Ġfood": 3046,
      "ĠMar": 3047,
      "Ġailleurs": 3048,
      "atis": 3049,
      "ĠconsÃ©quent": 3050,
      "less": 3051,
      "Ġpur": 3052,
      "pÃ©r": 3053,
      "Ġrelation": 3054,
      "Ġtel": 3055,
      "Ġfree": 3056,
      "Ġfinal": 3057,
      "Ġsanctions": 3058,
      "Ġlorsque": 3059,
      "Ġmentioned": 3060,
      "Ġrestric": 3061,
      "Ġcreate": 3062,
      "ĠlibÃ©r": 3063,
      "Ġpot": 3064,
      "Ġshow": 3065,
      "Ġformation": 3066,
      "Ġaide": 3067,
      "Ġtrait": 3068,
      "ĠpÃ©riode": 3069,
      "ones": 3070,
      "Ġseul": 3071,
      "Ġoppos": 3072,
      "Ġbest": 3073,
      "rÃ©e": 3074,
      "endant": 3075,
      "Ġnouveaux": 3076,
      "information": 3077,
      "aur": 3078,
      "emment": 3079,
      "velopp": 3080,
      "tifs": 3081,
      "Ġquand": 3082,
      "rique": 3083,
      "Ġconsci": 3084,
      "Ġaliment": 3085,
      "Ġamendment": 3086,
      "Ġrisk": 3087,
      "met": 3088,
      "Ġfaud": 3089,
      "Ġpuisse": 3090,
      "Ġfig": 3091,
      "eux": 3092,
      "ffice": 3093,
      "dames": 3094,
      "Ġchar": 3095,
      "avantage": 3096,
      "rÃ¨s": 3097,
      "oung": 3098,
      "Ġhui": 3099,
      "ueur": 3100,
      "Ġcases": 3101,
      "Ġlit": 3102,
      "ĠprÃ©cÃ©d": 3103,
      "Ġlegisl": 3104,
      "Ġsingle": 3105,
      "Ġcin": 3106,
      "Ġcompl": 3107,
      "Ġspecial": 3108,
      "Comme": 3109,
      "reg": 3110,
      "Ġregional": 3111,
      "onc": 3112,
      "tiÃ¨res": 3113,
      "Ġbro": 3114,
      "Ġdistrib": 3115,
      "With": 3116,
      "ĠdÃ©velopp": 3117,
      "hÃ©sion": 3118,
      "Ġapply": 3119,
      "Ġclair": 3120,
      "Ġjoint": 3121,
      "itre": 3122,
      "Ġenvis": 3123,
      "Ġeffect": 3124,
      "Ġconclusion": 3125,
      "ĠextrÃªme": 3126,
      "Ġtext": 3127,
      "ĠfranÃ§": 3128,
      "Ġfall": 3129,
      "dio": 3130,
      "Ġconten": 3131,
      "Ġpros": 3132,
      "msterdam": 3133,
      "Ã©rale": 3134,
      "ĠlibertÃ©": 3135,
      "dire": 3136,
      "Ġimpli": 3137,
      "Ġsoutenir": 3138,
      "ased": 3139,
      "Ġstart": 3140,
      "Ġinstruments": 3141,
      "Ġfondamentaux": 3142,
      "comm": 3143,
      "Ġalthough": 3144,
      "ĠÃ©tabl": 3145,
      "Ġsignal": 3146,
      "Ġpower": 3147,
      "Ġparten": 3148,
      "Ġfunds": 3149,
      "oles": 3150,
      "Ġlife": 3151,
      "Ġ14": 3152,
      "xte": 3153,
      "Ġthough": 3154,
      "Ġmieux": 3155,
      "iller": 3156,
      "Finally": 3157,
      "Ġpau": 3158,
      "Ġdue": 3159,
      "Ġqualif": 3160,
      "ĠBalk": 3161,
      "nerg": 3162,
      "Ġdim": 3163,
      "Ġvisant": 3164,
      "ĠmajoritÃ©": 3165,
      "Ġcompris": 3166,
      "ĠspÃ©cif": 3167,
      "istra": 3168,
      "Ġprojects": 3169,
      "Ġproper": 3170,
      "Ġmotion": 3171,
      "Ġdirection": 3172,
      "ĠcrÃ©er": 3173,
      "\",": 3174,
      "Ġcare": 3175,
      "Ġwee": 3176,
      "Ġentendu": 3177,
      "Ġcaract": 3178,
      "Ġsuffis": 3179,
      "Ġpropre": 3180,
      "Ġconsult": 3181,
      "Ġtotal": 3182,
      "Ġnegotiations": 3183,
      "arity": 3184,
      "Ġdestin": 3185,
      "agn": 3186,
      "Ġcamp": 3187,
      "Ġvoie": 3188,
      "Ġmoyen": 3189,
      "Ġsouligner": 3190,
      "ĠintÃ©rÃªts": 3191,
      "ĠÃ©conomiques": 3192,
      "ror": 3193,
      "Ġfont": 3194,
      "ĠnÃ©cessaires": 3195,
      "Ġobserv": 3196,
      "Ġstrong": 3197,
      "ĠMinister": 3198,
      "Ġnet": 3199,
      "Ġyoung": 3200,
      "ĠnÃ©gociations": 3201,
      "vÃ©": 3202,
      "thers": 3203,
      "Ġassess": 3204,
      "Ġsch": 3205,
      "Ġflex": 3206,
      "Ġsais": 3207,
      "ĠCommunautÃ©": 3208,
      "Ġbalance": 3209,
      "Ġorient": 3210,
      "ĠÃ©tant": 3211,
      "Ġadministra": 3212,
      "Ġwaste": 3213,
      "Ġactually": 3214,
      "Ġmatters": 3215,
      "Ġsouhaite": 3216,
      "Ġdavantage": 3217,
      "Ġear": 3218,
      "Ġconvention": 3219,
      "Ġvoted": 3220,
      "ĠrÃ©sultats": 3221,
      "ĠrÃ©forme": 3222,
      "Ġnote": 3223,
      "Ġconflic": 3224,
      "ĠdÃ©t": 3225,
      "Ġactuellement": 3226,
      "uel": 3227,
      "ivers": 3228,
      "Ġsitu": 3229,
      "Ġdraw": 3230,
      "Ġquat": 3231,
      "Ġparliament": 3232,
      "Ġplans": 3233,
      "Ġjeunes": 3234,
      "uring": 3235,
      "ĠSo": 3236,
      "Ġdiffici": 3237,
      "iÃ¨mement": 3238,
      "ĠdÃ©mocratie": 3239,
      "Ġforces": 3240,
      "Ġdiscussions": 3241,
      "asic": 3242,
      "anim": 3243,
      "Ġmight": 3244,
      "Ġenerg": 3245,
      "Ġimpact": 3246,
      "Ġfully": 3247,
      "Ġcolleag": 3248,
      "istre": 3249,
      "role": 3250,
      "Ġlibre": 3251,
      "Ġaffaires": 3252,
      "Ġagreements": 3253,
      "Ġappropriate": 3254,
      "Ġstep": 3255,
      "Ã©di": 3256,
      "Ġcat": 3257,
      "Ġthings": 3258,
      "Ġraisons": 3259,
      "Ġcontext": 3260,
      "Ġsimple": 3261,
      "ĠÃ©trang": 3262,
      "Ġpotenti": 3263,
      "Ġtiens": 3264,
      "ĠBar": 3265,
      "Ġguarantee": 3266,
      "istration": 3267,
      "used": 3268,
      "Enfin": 3269,
      "Ġlorsqu": 3270,
      "ĠConference": 3271,
      "Ġprac": 3272,
      "nel": 3273,
      "ising": 3274,
      "ĠÃ©gard": 3275,
      "visions": 3276,
      "Ġcentr": 3277,
      "Ġansw": 3278,
      "Ġpollution": 3279,
      "ĠFin": 3280,
      "Ġemb": 3281,
      "Ġprincipes": 3282,
      "Ġvraiment": 3283,
      "Ġ13": 3284,
      "diction": 3285,
      "Tout": 3286,
      "ners": 3287,
      "Ġnombreuses": 3288,
      "Ġtoutefois": 3289,
      "Ġincreasing": 3290,
      "Ġtom": 3291,
      "Ġtiers": 3292,
      "Ġeux": 3293,
      "Ġothers": 3294,
      "Ġpast": 3295,
      "Ġdist": 3296,
      "wh": 3297,
      "Ġprot": 3298,
      "Ġdevant": 3299,
      "Ġparler": 3300,
      "Ġactive": 3301,
      "Ġprinciples": 3302,
      "02": 3303,
      "tle": 3304,
      "Ġpat": 3305,
      "uss": 3306,
      "ĠAg": 3307,
      "Ġstress": 3308,
      "erman": 3309,
      "asse": 3310,
      "Ġprevious": 3311,
      "Unis": 3312,
      "Ġstric": 3313,
      "Ġdispositions": 3314,
      "Ġthems": 3315,
      "Ġbasic": 3316,
      "endra": 3317,
      "Ġdocuments": 3318,
      "Ġthemselves": 3319,
      "ĠEC": 3320,
      "Ġprep": 3321,
      "Ġcontraire": 3322,
      "most": 3323,
      "Ġpeux": 3324,
      "Ġtermes": 3325,
      "Af": 3326,
      "Toute": 3327,
      "Ġsuite": 3328,
      "Ġtrouve": 3329,
      "ĠBalkans": 3330,
      "Ġdemocracy": 3331,
      "Ġago": 3332,
      "Ġregarding": 3333,
      "Ġcommenc": 3334,
      "Ġresul": 3335,
      "Ġopportun": 3336,
      "ĠMesdames": 3337,
      "urd": 3338,
      "ĠprogrÃ¨s": 3339,
      "ĠdÃ©fense": 3340,
      "Ġcommercial": 3341,
      "ĠbudgÃ©taire": 3342,
      "over": 3343,
      "Ġev": 3344,
      "Ġours": 3345,
      "Ġactuelle": 3346,
      "tems": 3347,
      "Ġreports": 3348,
      "Ġdoute": 3349,
      "hic": 3350,
      "pens": 3351,
      "Ġsimplement": 3352,
      "ĠAmendment": 3353,
      "fortun": 3354,
      "Ġcoup": 3355,
      "Ġbegin": 3356,
      "ĠIs": 3357,
      "Ġconfi": 3358,
      "Ġtravailleurs": 3359,
      "acceptable": 3360,
      "ĠPal": 3361,
      "Ġtrouver": 3362,
      "Ġaccords": 3363,
      "ĠprÃ©occup": 3364,
      "ĠcontrÃ´": 3365,
      "Ġconfl": 3366,
      "Ġpersonnel": 3367,
      "Ġrapidement": 3368,
      "Ġjuste": 3369,
      "ĠProdi": 3370,
      "atoire": 3371,
      "uter": 3372,
      "idents": 3373,
      "Ġcrime": 3374,
      "ĠdÃ©pens": 3375,
      "Ġprofession": 3376,
      "Ġadap": 3377,
      "ĠCourt": 3378,
      "ĠSocial": 3379,
      "hn": 3380,
      "Ġindeed": 3381,
      "Ġlab": 3382,
      "Ġconvient": 3383,
      "Ġgovernments": 3384,
      "Ġ.": 3385,
      "Ġday": 3386,
      "Ġconstitution": 3387,
      "Ġrapports": 3388,
      "rastruct": 3389,
      "itaire": 3390,
      "Ġcependant": 3391,
      "ĠBr": 3392,
      "orrow": 3393,
      "Ġfron": 3394,
      "Ġwhile": 3395,
      "key": 3396,
      "Ġdemain": 3397,
      "Ġmonitor": 3398,
      "Ġtal": 3399,
      "Ġlist": 3400,
      "ars": 3401,
      "ably": 3402,
      "Ġapplic": 3403,
      "Ġrecent": 3404,
      "Ġamendement": 3405,
      "Ġcharg": 3406,
      "Ġnationaux": 3407,
      "Ġsensi": 3408,
      "CP": 3409,
      "ĠcÃ´": 3410,
      "ained": 3411,
      "Ġobten": 3412,
      "quent": 3413,
      "Ġcomb": 3414,
      "ĠGree": 3415,
      "Ġprotect": 3416,
      "Ġvoter": 3417,
      "Ġrisque": 3418,
      "Ġmonths": 3419,
      "TO": 3420,
      "Ġlack": 3421,
      "Ġamong": 3422,
      "Ġdevraient": 3423,
      "Ġworkers": 3424,
      "Ġstrength": 3425,
      "cture": 3426,
      "Ġemph": 3427,
      "Ġinformations": 3428,
      "Ġpermettre": 3429,
      "Ġclarif": 3430,
      "Ġnever": 3431,
      "Ġconcerning": 3432,
      "ĠSwed": 3433,
      "Ġabord": 3434,
      "Ġsix": 3435,
      "Ġnormes": 3436,
      "Ġstandards": 3437,
      "ĠtÃ©lÃ©": 3438,
      "tient": 3439,
      "Ġhabit": 3440,
      "Ġcomplex": 3441,
      "Ġcla": 3442,
      "Ġmess": 3443,
      "Ġagit": 3444,
      "ody": 3445,
      "Ġlonger": 3446,
      "Ġ2001": 3447,
      "Ġdoing": 3448,
      "pÃ©ri": 3449,
      "Ġsystems": 3450,
      "Ġgouvernements": 3451,
      "ĠextrÃªmement": 3452,
      "otion": 3453,
      "Ġfound": 3454,
      "Ġcomes": 3455,
      "Ġaides": 3456,
      "Ġlog": 3457,
      "Ġpolice": 3458,
      "Ġadopt": 3459,
      "ĠdiffÃ©rentes": 3460,
      "ĠrÃ©se": 3461,
      "Ġcondition": 3462,
      "Ġattend": 3463,
      "Ġactivities": 3464,
      "Ġcelles": 3465,
      "ĠdonnÃ©es": 3466,
      "iÃ©s": 3467,
      "Ġtitre": 3468,
      "rain": 3469,
      "ires": 3470,
      "ĠParty": 3471,
      "Ġnationales": 3472,
      "Ġguid": 3473,
      "Ġcurrently": 3474,
      "Ġconsumer": 3475,
      "ĠZ": 3476,
      "lles": 3477,
      "Ġeducation": 3478,
      "Ġperhaps": 3479,
      "uman": 3480,
      "Ġoccu": 3481,
      "My": 3482,
      "Ġsex": 3483,
      "outh": 3484,
      "Ġmodern": 3485,
      "government": 3486,
      "Second": 3487,
      "mar": 3488,
      "rim": 3489,
      "ĠMa": 3490,
      "Ġappelle": 3491,
      "Ġdraft": 3492,
      "Ġrecommend": 3493,
      "Ġtreat": 3494,
      "ĠindÃ©": 3495,
      "Ġestim": 3496,
      "Ġexamin": 3497,
      "Ġreasons": 3498,
      "Ġviolence": 3499,
      "nov": 3500,
      "ĠaÃ©ri": 3501,
      "atory": 3502,
      "Ġenergy": 3503,
      "ool": 3504,
      "Ã¨ne": 3505,
      "Vous": 3506,
      "Ġmind": 3507,
      "Ġrendre": 3508,
      "Ġadv": 3509,
      "Ġouver": 3510,
      "aper": 3511,
      "Ġremercie": 3512,
      "Ġdifficile": 3513,
      "Ġsim": 3514,
      "Ġcontent": 3515,
      "truction": 3516,
      "Ġemp": 3517,
      "Ġcroissance": 3518,
      "ĠconsÃ©quences": 3519,
      "Ġourselves": 3520,
      "moi": 3521,
      "onds": 3522,
      "yl": 3523,
      "eric": 3524,
      "Ġitem": 3525,
      "Ġdate": 3526,
      "ctron": 3527,
      "ledge": 3528,
      "Ġoccasion": 3529,
      "Ġinternationale": 3530,
      "Ġcos": 3531,
      "tras": 3532,
      "ĠSu": 3533,
      "ettez": 3534,
      "ĠFeira": 3535,
      "Ã©conom": 3536,
      "quie": 3537,
      "Ġenough": 3538,
      "Ġcarried": 3539,
      "ĠrÃ©pondre": 3540,
      "ĠextÃ©": 3541,
      "Ġindis": 3542,
      "Ġstrategy": 3543,
      "nelle": 3544,
      "Ġforme": 3545,
      "ĠdÃ©termin": 3546,
      "ĠConf": 3547,
      "Ġrenforcer": 3548,
      "Ġglobal": 3549,
      "Ġpurp": 3550,
      "governmental": 3551,
      "ix": 3552,
      "Ġtent": 3553,
      "Ġrespe": 3554,
      "Ġheure": 3555,
      "bourg": 3556,
      "tives": 3557,
      "ĠrÃ©alitÃ©": 3558,
      "Ġargu": 3559,
      "Ġcapital": 3560,
      "Ġlarg": 3561,
      "eries": 3562,
      "Ġpreuve": 3563,
      "Ġessentiel": 3564,
      "CE": 3565,
      "Ã¨de": 3566,
      "Ġnothing": 3567,
      "Ġregulations": 3568,
      "encont": 3569,
      "ganisation": 3570,
      "ĠactivitÃ©s": 3571,
      "euros": 3572,
      "Ġlegislative": 3573,
      "Ġtomorrow": 3574,
      "nous": 3575,
      "Ġsl": 3576,
      "ering": 3577,
      "Ġhim": 3578,
      "Ġsum": 3579,
      "Ġconcr": 3580,
      "Ġcommunautaires": 3581,
      "ĠTurkey": 3582,
      "Ġplein": 3583,
      "Ġrappeler": 3584,
      "Ã©largissement": 3585,
      "Ã¨ve": 3586,
      "riculture": 3587,
      "Ġgener": 3588,
      "Ġnorm": 3589,
      "icy": 3590,
      "Ġtechnical": 3591,
      "Ġconsequ": 3592,
      "Ġcongratulate": 3593,
      "Ġsubsidi": 3594,
      "utÃ´t": 3595,
      "ienne": 3596,
      "Ġpratique": 3597,
      "Ġmeeting": 3598,
      "Toutefois": 3599,
      "Ġemphas": 3600,
      "clear": 3601,
      "uit": 3602,
      "Ġpartners": 3603,
      "Ġrecommand": 3604,
      "Ġidea": 3605,
      "Ġfinancement": 3606,
      "tra": 3607,
      "Ġjam": 3608,
      "Ġcertainement": 3609,
      "Ġundert": 3610,
      "Ġassistance": 3611,
      "Ġformul": 3612,
      "Ġprocedures": 3613,
      ").": 3614,
      "erb": 3615,
      "Ġrend": 3616,
      "Ġsure": 3617,
      "Ġdecid": 3618,
      "ĠInternet": 3619,
      "Ġgrowth": 3620,
      "Ġinqui": 3621,
      "ĠPat": 3622,
      "Ġshe": 3623,
      "ĠdÃ©mocratique": 3624,
      "Ġoffici": 3625,
      "Ġay": 3626,
      "Ġbure": 3627,
      "ctors": 3628,
      "Ġbroad": 3629,
      "ĠJe": 3630,
      "ĠdÃ©chets": 3631,
      "uin": 3632,
      "Ġstates": 3633,
      "Ġ30": 3634,
      "ĠprocÃ©dures": 3635,
      "ĠpassÃ©": 3636,
      "ĠstratÃ©gie": 3637,
      "ling": 3638,
      "erais": 3639,
      "Ġmot": 3640,
      "Ġconfirm": 3641,
      "ĠvotÃ©": 3642,
      "Ġappel": 3643,
      "Ġdoub": 3644,
      "Ġkey": 3645,
      "ĠfÃ©liciter": 3646,
      "Ġdimension": 3647,
      "iew": 3648,
      "Ġdirecte": 3649,
      "Ġdevrions": 3650,
      "ĠRussi": 3651,
      "Ġsavons": 3652,
      "Ġkeep": 3653,
      "self": 3654,
      "Ġline": 3655,
      "erve": 3656,
      "Ġ-,": 3657,
      "Ġcontinuer": 3658,
      "application": 3659,
      "ĠsupplÃ©ment": 3660,
      "Secondly": 3661,
      "To": 3662,
      "ross": 3663,
      "ester": 3664,
      "Ġassurer": 3665,
      "ternal": 3666,
      "ĠTurquie": 3667,
      "Ġresults": 3668,
      "All": 3669,
      "yp": 3670,
      "anted": 3671,
      "Ġmanif": 3672,
      "Ġveut": 3673,
      "heureusement": 3674,
      "ĠCharter": 3675,
      "Ġlittle": 3676,
      "Ġchall": 3677,
      "Ġnat": 3678,
      "Ġpourra": 3679,
      "Ġmakes": 3680,
      "Ġinclude": 3681,
      "Let": 3682,
      "cle": 3683,
      "ience": 3684,
      "uff": 3685,
      "Ġtar": 3686,
      "Ġshare": 3687,
      "indre": 3688,
      "Ġmaintain": 3689,
      "Ġagricultural": 3690,
      "aces": 3691,
      "Ġtrouv": 3692,
      "ĠprÃ©c": 3693,
      "Ġstatement": 3694,
      "Ġhonour": 3695,
      "Ġcosts": 3696,
      "Ġjamais": 3697,
      "fier": 3698,
      "uese": 3699,
      "Ġconform": 3700,
      "ĠprotÃ©": 3701,
      "Ġenfin": 3702,
      "Ġprises": 3703,
      "ĠInter": 3704,
      "importance": 3705,
      "Ġtransports": 3706,
      "Ġcandidats": 3707,
      "ĠPortuguese": 3708,
      "ĠplutÃ´t": 3709,
      "Ġcher": 3710,
      "ĠprÃ©senter": 3711,
      "Ġtabled": 3712,
      "PE": 3713,
      "Ġpossibil": 3714,
      "Ġconstruction": 3715,
      "Ġ50": 3716,
      "ĠAmeric": 3717,
      "gra": 3718,
      "ĠY": 3719,
      "Ġsolutions": 3720,
      "Ġbil": 3721,
      "ablement": 3722,
      "Ġorganisation": 3723,
      "ban": 3724,
      "ĠThis": 3725,
      "Ġcost": 3726,
      "Ġvu": 3727,
      "objet": 3728,
      "Ġseems": 3729,
      "Ġforeign": 3730,
      "ĠvolontÃ©": 3731,
      "Ġdam": 3732,
      "Ġconne": 3733,
      "Ã¨le": 3734,
      "ests": 3735,
      "Ġtrue": 3736,
      "Ġpetit": 3737,
      "Ġground": 3738,
      "DE": 3739,
      "Ġthreat": 3740,
      "Ġquot": 3741,
      "Ġregul": 3742,
      "Ġroad": 3743,
      "Ġpriority": 3744,
      "ĠdÃ©cid": 3745,
      "Ġnetwork": 3746,
      "ina": 3747,
      "Ġconfiance": 3748,
      "ean": 3749,
      "Ġintention": 3750,
      "ĠPol": 3751,
      "Ġexpect": 3752,
      "annÃ©e": 3753,
      "Ġexploit": 3754,
      "Ġvictimes": 3755,
      "term": 3756,
      "Ġpartage": 3757,
      "Ġprofit": 3758,
      "Ġcrucial": 3759,
      "trasbourg": 3760,
      "udi": 3761,
      "Ġsuper": 3762,
      "ĠdÃ©claration": 3763,
      "rÃ©s": 3764,
      "Ġsever": 3765,
      "Ġattitude": 3766,
      "Ġportug": 3767,
      "rÃªt": 3768,
      "ĠcompÃ©t": 3769,
      "Ġprovided": 3770,
      "Ġterror": 3771,
      "temps": 3772,
      "fortunately": 3773,
      "Ġfis": 3774,
      "issons": 3775,
      "ĠÃ©vo": 3776,
      "Ġveux": 3777,
      "fully": 3778,
      "ibles": 3779,
      "onstr": 3780,
      "Ġ25": 3781,
      "Ġimportants": 3782,
      "Ġurgent": 3783,
      "tir": 3784,
      "Ġacqu": 3785,
      "umer": 3786,
      "ĠprÃ©sente": 3787,
      "roph": 3788,
      "amb": 3789,
      "eures": 3790,
      "ĠderniÃ¨res": 3791,
      "Deux": 3792,
      "moins": 3793,
      "sence": 3794,
      "Ġexport": 3795,
      "Ġcollaboration": 3796,
      "ĠsystÃ¨mes": 3797,
      "Ġconsumers": 3798,
      "Ġcommitment": 3799,
      "Ġcontexte": 3800,
      "Ã©put": 3801,
      "Not": 3802,
      "ake": 3803,
      "Ġprobab": 3804,
      "ĠGerman": 3805,
      "Ġindic": 3806,
      "Ġaffect": 3807,
      "eff": 3808,
      "uf": 3809,
      "Ġautant": 3810,
      "Ġtechnologies": 3811,
      "Ġfarmers": 3812,
      "anmoins": 3813,
      "industrie": 3814,
      "Ġaccepter": 3815,
      "Ġmilitary": 3816,
      "Ġporte": 3817,
      "ĠMed": 3818,
      "aged": 3819,
      "ployment": 3820,
      "Ġsignificant": 3821,
      "Ġindispens": 3822,
      "ancer": 3823,
      "Ġfoc": 3824,
      "Ġrepe": 3825,
      "Ġmove": 3826,
      "Ġtransparence": 3827,
      "Ġmeilleure": 3828,
      "Ġanswer": 3829,
      "ĠSerb": 3830,
      "ĠStrasbourg": 3831,
      "Ġtradition": 3832,
      "Ġstage": 3833,
      "Ġmanque": 3834,
      "Ġcrit": 3835,
      "Ã¢ce": 3836,
      "Ġseveral": 3837,
      "Re": 3838,
      "Ġtels": 3839,
      "iennent": 3840,
      "ĠDÃ©put": 3841,
      "Ġtenir": 3842,
      "Ġinfrastruct": 3843,
      "Ġdat": 3844,
      "ĠACP": 3845,
      "ĠDire": 3846,
      "ophob": 3847,
      "inc": 3848,
      "aster": 3849,
      "Ġobvious": 3850,
      "Ġsubmit": 3851,
      "Ġagreed": 3852,
      "Ġvigueur": 3853,
      "Ã©ch": 3854,
      "ĠrÃ©jou": 3855,
      "clÃ©": 3856,
      "Ġcarry": 3857,
      "iliation": 3858,
      "Ġvaleurs": 3859,
      "uelle": 3860,
      "Ġtelles": 3861,
      "enci": 3862,
      "Ġpracti": 3863,
      "Ġheld": 3864,
      "Ġprovisions": 3865,
      "iving": 3866,
      "appro": 3867,
      "Ġstrengthen": 3868,
      "AN": 3869,
      "Ġder": 3870,
      "ĠstabilitÃ©": 3871,
      "ailleurs": 3872,
      "Ġvoting": 3873,
      "ĠmÃ©di": 3874,
      "Ġzones": 3875,
      "Ġsituations": 3876,
      "Ġsort": 3877,
      "Ġaltern": 3878,
      "Ġprise": 3879,
      "oires": 3880,
      "uv": 3881,
      "Ġconsac": 3882,
      "Ġremain": 3883,
      "Ġdeveloping": 3884,
      "Ġcorresp": 3885,
      "Ġstructures": 3886,
      "Ġcritic": 3887,
      "Ġuniquement": 3888,
      "Ġuntil": 3889,
      "Ġ1997": 3890,
      "coming": 3891,
      "ĠpÃ©n": 3892,
      "Ġseen": 3893,
      "Ġsociaux": 3894,
      "Ġaurait": 3895,
      "Parliament": 3896,
      "03": 3897,
      "Ġsense": 3898,
      "Ġhold": 3899,
      "Ġred": 3900,
      "Ġinterp": 3901,
      "Ġidentif": 3902,
      "SE": 3903,
      "way": 3904,
      "utrich": 3905,
      "Ġtransf": 3906,
      "Ġsession": 3907,
      "Ġestablished": 3908,
      "Ġexpressed": 3909,
      "Ġbenefit": 3910,
      "ators": 3911,
      "rale": 3912,
      "Ġguerre": 3913,
      "Ġpresented": 3914,
      "Ġmessage": 3915,
      "Ġpension": 3916,
      "orn": 3917,
      "Ġarticle": 3918,
      "Ġeffectu": 3919,
      "Ġhistor": 3920,
      "AF": 3921,
      "ÂŃ": 3922,
      "tig": 3923,
      "ĠopÃ©r": 3924,
      "Ġentra": 3925,
      "Or": 3926,
      "Ġtab": 3927,
      "Ġinten": 3928,
      "Ġraised": 3929,
      "Ġrisques": 3930,
      "Ġseule": 3931,
      "hod": 3932,
      "Ġmax": 3933,
      "Ġdipl": 3934,
      "jectif": 3935,
      "Ġchanges": 3936,
      "ĠprÃ©cisÃ©ment": 3937,
      "Office": 3938,
      "Ġhomme": 3939,
      "amÃ©li": 3940,
      "sez": 3941,
      "Ġachieved": 3942,
      "gouver": 3943,
      "orted": 3944,
      "ĠmarchÃ©s": 3945,
      "Ġtraining": 3946,
      "Ġprepared": 3947,
      "mp": 3948,
      "ites": 3949,
      "Ġeither": 3950,
      "Ġdois": 3951,
      "Ġaccording": 3952,
      "Ġsecteurs": 3953,
      "Ġzone": 3954,
      "Ġindepend": 3955,
      "Ġvrai": 3956,
      "rir": 3957,
      "Ġi": 3958,
      "Ġmission": 3959,
      "Ġquick": 3960,
      "Ġsoon": 3961,
      "ĠDan": 3962,
      "Ġabsolument": 3963,
      "Ġbuild": 3964,
      "ĠAfrica": 3965,
      "lin": 3966,
      "lande": 3967,
      "tile": 3968,
      "ertes": 3969,
      "Ġremind": 3970,
      "Ġtele": 3971,
      "Ġgrandes": 3972,
      "Ġthing": 3973,
      "itiative": 3974,
      "Ġche": 3975,
      "Ġconciliation": 3976,
      "plois": 3977,
      "ĠrÃ©gime": 3978,
      "Ġvotes": 3979,
      "ĠrÃ©fug": 3980,
      "inst": 3981,
      "adop": 3982,
      "Ġchocol": 3983,
      "Ġpeti": 3984,
      "Ġtaux": 3985,
      "Ġaccomp": 3986,
      "Ġhighl": 3987,
      "ĠmÃ©th": 3988,
      "Ġsubstances": 3989,
      "gouvernement": 3990,
      "dre": 3991,
      "Ġwhose": 3992,
      "rier": 3993,
      "prit": 3994,
      "Ġneeded": 3995,
      "ered": 3996,
      "ĠvÃ©ritable": 3997,
      "ĠConfÃ©rence": 3998,
      "ĠUE": 3999,
      "ossi": 4000,
      "Cependant": 4001,
      "Ġsignifie": 4002,
      "iation": 4003,
      "ĠUN": 4004,
      "ĠLisbon": 4005,
      "ĠLisbonne": 4006,
      "ori": 4007,
      "Ġacces": 4008,
      "Ġdemonstr": 4009,
      "ĠdÃ©pos": 4010,
      "Ġrefuge": 4011,
      "Ġinflu": 4012,
      "Ġconvain": 4013,
      "ĠlibÃ©ralisation": 4014,
      "Ġunivers": 4015,
      "ĠrÃ©ellement": 4016,
      "ĠsÃ©ance": 4017,
      "ture": 4018,
      "Ġx": 4019,
      "Ġturn": 4020,
      "ĠÃ©nerg": 4021,
      "venus": 4022,
      "atifs": 4023,
      "ĠTraitÃ©": 4024,
      "Ġpractice": 4025,
      "Ġintergouvernement": 4026,
      "ĠDem": 4027,
      "ĠHe": 4028,
      "Ġcapit": 4029,
      "Ġextra": 4030,
      "ylum": 4031,
      "cul": 4032,
      "Ġprim": 4033,
      "arer": 4034,
      "Ġassur": 4035,
      "ĠprÃ©sentÃ©": 4036,
      "Ġrefus": 4037,
      "utilisation": 4038,
      "nÃ©": 4039,
      "rog": 4040,
      "Ġincor": 4041,
      "Ġmethod": 4042,
      "Thank": 4043,
      "Ġpersonne": 4044,
      "astroph": 4045,
      "tivitÃ©": 4046,
      "Ġjudici": 4047,
      "estin": 4048,
      "Ġrequired": 4049,
      "ĠReg": 4050,
      "Ġanalys": 4051,
      "uite": 4052,
      "Ġcur": 4053,
      "edi": 4054,
      "Ġfail": 4055,
      "Ġminist": 4056,
      "Ġmondiale": 4057,
      "),": 4058,
      "aci": 4059,
      "ĠdÃ»": 4060,
      "Ġsust": 4061,
      "ides": 4062,
      "Ġassez": 4063,
      "Ques": 4064,
      "oid": 4065,
      "Ġcorrect": 4066,
      "aÃ®t": 4067,
      "la": 4068,
      "therm": 4069,
      "Ġmarkets": 4070,
      "ĠnuclÃ©": 4071,
      "Ġcatastroph": 4072,
      "venu": 4073,
      "Ġabove": 4074,
      "thermore": 4075,
      "Ġlink": 4076,
      "idemment": 4077,
      "paration": 4078,
      "Ġvalues": 4079,
      "Ġdecided": 4080,
      "Ġdeleg": 4081,
      "Ġmand": 4082,
      "Ġethn": 4083,
      "elines": 4084,
      "objectif": 4085,
      "Ã©diterran": 4086,
      "Ġcentrale": 4087,
      "Ġasked": 4088,
      "iterranean": 4089,
      "Ġcorrespond": 4090,
      "Ġpromote": 4091,
      "Ġfinanciers": 4092,
      "Ġmulti": 4093,
      "Ġsimil": 4094,
      "Ġheures": 4095,
      "elsink": 4096,
      "ĠÃ©videmment": 4097,
      "ĠgÃ©nÃ©rale": 4098,
      "Ġeveryone": 4099,
      "Ġcompromis": 4100,
      "elsinki": 4101,
      "mb": 4102,
      "vez": 4103,
      "tead": 4104,
      "Ġstar": 4105,
      "Ġjobs": 4106,
      "ĠAustria": 4107,
      "Ġlow": 4108,
      "Ġvient": 4109,
      "Ġdisch": 4110,
      "ĠreprÃ©sente": 4111,
      "Ġlecture": 4112,
      "Ġminimum": 4113,
      "Ġpromotion": 4114,
      "Ġagriculture": 4115,
      "Ġinstall": 4116,
      "Ġapprouv": 4117,
      "Ġdebat": 4118,
      "Ġchem": 4119,
      "Ġveiller": 4120,
      "ĠrÃ©glementation": 4121,
      "Ġcultural": 4122,
      "ories": 4123,
      "Ġrig": 4124,
      "Ġconver": 4125,
      "ĠÃ©n": 4126,
      "ĠrÃ©fÃ©rence": 4127,
      "Ġadministration": 4128,
      "ĠcoÃ»ts": 4129,
      "ĠdÃ©but": 4130,
      "Our": 4131,
      "vous": 4132,
      "Ġetc": 4133,
      "Ġasylum": 4134,
      "illes": 4135,
      "acun": 4136,
      "ĠBel": 4137,
      "Ġrapide": 4138,
      "Ġambiti": 4139,
      "Ġpensons": 4140,
      "ĠIsra": 4141,
      "ĠAmsterdam": 4142,
      "ĠÃ©vident": 4143,
      "Ġexisting": 4144,
      "eau": 4145,
      "oss": 4146,
      "ĠPe": 4147,
      "ĠÃ©taient": 4148,
      "ĠPatten": 4149,
      "utriche": 4150,
      "Ã¯": 4151,
      "ource": 4152,
      "ĠdÃ©pl": 4153,
      "Ġcho": 4154,
      "Ġtran": 4155,
      "aution": 4156,
      "ĠÃ©quili": 4157,
      "Ġconflict": 4158,
      "Ġordre": 4159,
      "ĠMon": 4160,
      "ĠgrÃ¢ce": 4161,
      "Ġapproved": 4162,
      "Ġsaying": 4163,
      "Ġthroughout": 4164,
      "ris": 4165,
      "Ġinnov": 4166,
      "Ġtask": 4167,
      "Ġquatre": 4168,
      "Ġdiplom": 4169,
      "mber": 4170,
      "sp": 4171,
      "ĠreÃ§": 4172,
      "Ils": 4173,
      "Ġemploi": 4174,
      "ĠconsidÃ©ration": 4175,
      "ĠÃ©conomie": 4176,
      "Ġparole": 4177,
      "Ġencourage": 4178,
      "Ġquelle": 4179,
      "Ġcondam": 4180,
      "cement": 4181,
      "ctro": 4182,
      "lier": 4183,
      "Ġcriter": 4184,
      "Ġgrands": 4185,
      "voy": 4186,
      "ĠtÃ¢": 4187,
      "tiqu": 4188,
      "liquer": 4189,
      "Ġconcentr": 4190,
      "Ġdevra": 4191,
      "Ġrelatives": 4192,
      "Ġtransparency": 4193,
      "ĠSp": 4194,
      "ĠGen": 4195,
      "Ġpartis": 4196,
      "Ġcris": 4197,
      "ĠÃ©viter": 4198,
      "ĠfinanciÃ¨re": 4199,
      "Ġexperience": 4200,
      "Ġweek": 4201,
      "ĠpossibilitÃ©s": 4202,
      "ĠLa": 4203,
      "DA": 4204,
      "ĠPPE": 4205,
      "liance": 4206,
      "Ġtrafic": 4207,
      "Ġhead": 4208,
      "Ġcontribuer": 4209,
      "Ġfunding": 4210,
      "Ġnaturel": 4211,
      "Ġvictims": 4212,
      "ĠcaractÃ¨re": 4213,
      "Ġdata": 4214,
      "Ġtell": 4215,
      "Ġnam": 4216,
      "Ġconcept": 4217,
      "Ã©nerg": 4218,
      "ĠdemandÃ©": 4219,
      "Ġimplemented": 4220,
      "ĠrÃ©duction": 4221,
      "Ġfive": 4222,
      "icient": 4223,
      "Ġhard": 4224,
      "Ġfair": 4225,
      "Ġsafe": 4226,
      "Ġrempl": 4227,
      "Ġsufficient": 4228,
      "Ã¨tes": 4229,
      "rieure": 4230,
      "Des": 4231,
      "One": 4232,
      "oque": 4233,
      "Ġhomm": 4234,
      "Ġconserv": 4235,
      "Ġdevoir": 4236,
      "Ġlevels": 4237,
      "ĠdifficultÃ©s": 4238,
      "Ġlesquels": 4239,
      "Ġguidelines": 4240,
      "Ġpendant": 4241,
      "anis": 4242,
      "Ġquoi": 4243,
      "Ġexternal": 4244,
      "Ġenter": 4245,
      "Ġnuclear": 4246,
      "ĠCharte": 4247,
      "Ġintergouvernementale": 4248,
      "hen": 4249,
      "Ġdimin": 4250,
      "Ġobser": 4251,
      "Ġapproche": 4252,
      "Ġclosed": 4253,
      "commun": 4254,
      "cent": 4255,
      "Ġportugaise": 4256,
      "iture": 4257,
      "Ġmort": 4258,
      "Ġunies": 4259,
      "Ġchance": 4260,
      "Ġsitting": 4261,
      "Ġalimentaire": 4262,
      "apport": 4263,
      "Ã¨ce": 4264,
      "Ġratif": 4265,
      "Ġpresidency": 4266,
      "Ġtyp": 4267,
      "Ġrequirements": 4268,
      "Ġsubstanti": 4269,
      "Ġdoubt": 4270,
      "ges": 4271,
      "ox": 4272,
      "ĠWe": 4273,
      "initiative": 4274,
      "tish": 4275,
      "Ġrelevant": 4276,
      "ilÃł": 4277,
      "Ġextent": 4278,
      "Ġcrisis": 4279,
      "Be": 4280,
      "yn": 4281,
      "Ġmer": 4282,
      "Ġrefle": 4283,
      "Ġsommet": 4284,
      "Ġcapac": 4285,
      "ĠdÃ©lÃ©g": 4286,
      "ĠamÃ©liorer": 4287,
      "ĠaÃ©rien": 4288,
      "Ġpasse": 4289,
      "Ġattem": 4290,
      "Ġ18": 4291,
      "occasion": 4292,
      "Ġhear": 4293,
      "Ġperman": 4294,
      "ĠprioritÃ©": 4295,
      "ume": 4296,
      "Ġ,": 4297,
      "ustice": 4298,
      "aud": 4299,
      "Ġresponse": 4300,
      "Ġincluded": 4301,
      "Ġexercice": 4302,
      "Ġpositions": 4303,
      "ĠBer": 4304,
      "onnes": 4305,
      "ĠespÃ©": 4306,
      "arian": 4307,
      "Ġgrave": 4308,
      "Ġcompletely": 4309,
      "Ġcriminal": 4310,
      "ĠrÃ©fugiÃ©s": 4311,
      "Ġpoor": 4312,
      "Ġabsolutely": 4313,
      "ĠcritÃ¨res": 4314,
      "ĠÃ©lÃ©ment": 4315,
      "Ġrelating": 4316,
      "Ġobligations": 4317,
      "ana": 4318,
      "Ġrich": 4319,
      "ades": 4320,
      "Ġproduit": 4321,
      "Ġarm": 4322,
      "Ġpasser": 4323,
      "conomic": 4324,
      "Ġreview": 4325,
      "ariat": 4326,
      "Ġdesp": 4327,
      "Ġparvenir": 4328,
      "Ġ17": 4329,
      "ĠconsidÃ©ra": 4330,
      "Ġcommencer": 4331,
      "der": 4332,
      "ination": 4333,
      "sif": 4334,
      "Ġcond": 4335,
      "Ġpuissent": 4336,
      "Ġtraitement": 4337,
      "az": 4338,
      "ĠTh": 4339,
      "Ġoffer": 4340,
      "itime": 4341,
      "ĠSum": 4342,
      "veness": 4343,
      "ĠprÃª": 4344,
      "Ġrecons": 4345,
      "Ġbiais": 4346,
      "Ġrun": 4347,
      "ulteurs": 4348,
      "Ã©ric": 4349,
      "avoir": 4350,
      "ĠconfÃ©rence": 4351,
      "Ġdurable": 4352,
      "Ġflexi": 4353,
      "Ġadministrative": 4354,
      "ĠdÃ©penses": 4355,
      "Ġloin": 4356,
      "Ġvont": 4357,
      "Ġavoid": 4358,
      "Ġconfidence": 4359,
      "ĠrÃ©duire": 4360,
      "sidered": 4361,
      "Ġcompromise": 4362,
      "Ġsustain": 4363,
      "mi": 4364,
      "yer": 4365,
      "Ġpurs": 4366,
      "ortion": 4367,
      "Ġexception": 4368,
      "theless": 4369,
      "Ġlive": 4370,
      "Ġtravaux": 4371,
      "Ġministre": 4372,
      "Ġquickly": 4373,
      "Ã©nergie": 4374,
      "Ch": 4375,
      "Ob": 4376,
      "Ãī": 4377,
      "Ġdeli": 4378,
      "Ġlaiss": 4379,
      "imm": 4380,
      "Ġcode": 4381,
      "Ġconstat": 4382,
      "ĠintÃ©rÃªt": 4383,
      "Ġreduce": 4384,
      "Ġreceived": 4385,
      "gn": 4386,
      "Ġign": 4387,
      "Ġtalk": 4388,
      "Ġdange": 4389,
      "enn": 4390,
      "unis": 4391,
      "ĠÃ©lÃ©": 4392,
      "adhÃ©sion": 4393,
      "Ġdispar": 4394,
      "ĠLi": 4395,
      "Ġtouch": 4396,
      "ritann": 4397,
      "Ġstructurels": 4398,
      "Ġdefence": 4399,
      "Ġdangere": 4400,
      "erait": 4401,
      "Ġproceed": 4402,
      "emn": 4403,
      "avons": 4404,
      "Ġknowledge": 4405,
      "Ġmonitoring": 4406,
      "by": 4407,
      "Ġmut": 4408,
      "Ġelement": 4409,
      "ĠintÃ©ress": 4410,
      "Ġintegr": 4411,
      "Ġtop": 4412,
      "Ġconn": 4413,
      "Ġjoin": 4414,
      "Ġcompar": 4415,
      "Ġstud": 4416,
      "Ġtechnique": 4417,
      "Ġconstater": 4418,
      "ĠcompÃ©ti": 4419,
      "Ġcirculation": 4420,
      "Ġfisheries": 4421,
      "ged": 4422,
      "Ġrejet": 4423,
      "Ġprec": 4424,
      "Ġelse": 4425,
      "Ġindispensable": 4426,
      "issions": 4427,
      "Ġbar": 4428,
      "Ġconsist": 4429,
      "Ġclose": 4430,
      "alised": 4431,
      "ĠSummit": 4432,
      "EC": 4433,
      "Ġden": 4434,
      "itim": 4435,
      "Ġradio": 4436,
      "exam": 4437,
      "Ġimmedi": 4438,
      "Ġdossi": 4439,
      "Ġunanim": 4440,
      "ĠrÃ©vision": 4441,
      "ĠFonds": 4442,
      "cisely": 4443,
      "Ġimportantes": 4444,
      "Ġpopulations": 4445,
      "Ġparagraphe": 4446,
      "Ġcinq": 4447,
      "ĠinquiÃ©t": 4448,
      "Ġhonourable": 4449,
      "uis": 4450,
      "ys": 4451,
      "Ġold": 4452,
      "Ġsectors": 4453,
      "arder": 4454,
      "Ġlangu": 4455,
      "Ġtalking": 4456,
      "Am": 4457,
      "ignes": 4458,
      "ĠproposÃ©": 4459,
      "Ġlight": 4460,
      "Ġleft": 4461,
      "ĠIl": 4462,
      "Ġtechniques": 4463,
      "Ġbehind": 4464,
      "ĠfinanciÃ¨res": 4465,
      "Ġinvestiss": 4466,
      "ring": 4467,
      "Ġdepend": 4468,
      "Ġexact": 4469,
      "Ġcompet": 4470,
      "Ġauxqu": 4471,
      "ĠBri": 4472,
      "Ġvois": 4473,
      "Ġliberalisation": 4474,
      "Ġeffectivement": 4475,
      "Ġharmonisation": 4476,
      "Ġperspective": 4477,
      "Firstly": 4478,
      "ij": 4479,
      "vres": 4480,
      "Ġresol": 4481,
      "Ġpropres": 4482,
      "Ġcompens": 4483,
      "Ġmovement": 4484,
      "Ġought": 4485,
      "Ġbudgetary": 4486,
      "Ġpermettant": 4487,
      "Ġprivate": 4488,
      "Ġfishing": 4489,
      "ĠfranÃ§aise": 4490,
      "ĠÃ©lÃ©ments": 4491,
      "inte": 4492,
      "Ġcharge": 4493,
      "actions": 4494,
      "Ġprecisely": 4495,
      "vironment": 4496,
      "Ġjourn": 4497,
      "Therefore": 4498,
      "Ġtenu": 4499,
      "Ġtotalement": 4500,
      "Ġspecifically": 4501,
      "Ġapplied": 4502,
      "orig": 4503,
      "ĠCons": 4504,
      "Ã©tabl": 4505,
      "Ġconstituent": 4506,
      "Ġreading": 4507,
      "COM": 4508,
      "Ġtend": 4509,
      "Ġtimes": 4510,
      "Ġsait": 4511,
      "Ã©tait": 4512,
      "Ġregards": 4513,
      "Ġsimpli": 4514,
      "intÃ©rÃªt": 4515,
      "Ġimpossible": 4516,
      "Ġconsequences": 4517,
      "tres": 4518,
      "ously": 4519,
      "avis": 4520,
      "Ġensuite": 4521,
      "Ġpleased": 4522,
      "Ġrepresentatives": 4523,
      "ĠdÃ©velopper": 4524,
      "Ġdischarge": 4525,
      "Ġgre": 4526,
      "Ġvalue": 4527,
      "Ġconsidered": 4528,
      "ification": 4529,
      "jouter": 4530,
      "esterday": 4531,
      "alu": 4532,
      "ĠvÃ©": 4533,
      "Ġstability": 4534,
      "Ġparty": 4535,
      "ĠprioritÃ©s": 4536,
      "Ġintegration": 4537,
      "Ġexclu": 4538,
      "Ġconsultation": 4539,
      "Ã©conomie": 4540,
      "Fur": 4541,
      "Ġvital": 4542,
      "imbab": 4543,
      "ĠmÃ©c": 4544,
      "Ġcriteria": 4545,
      "ok": 4546,
      "Ġer": 4547,
      "Ġlear": 4548,
      "rÃ©t": 4549,
      "ĠIra": 4550,
      "Ġdisaster": 4551,
      "Ġamount": 4552,
      "ĠsuccÃ¨s": 4553,
      "Ġacceptable": 4554,
      "Ġcandidate": 4555,
      "DeuxiÃ¨mement": 4556,
      "iÃ©": 4557,
      "Ġcomments": 4558,
      "stac": 4559,
      "ĠGre": 4560,
      "Ġcalled": 4561,
      "ĠindÃ©pend": 4562,
      "Ġayant": 4563,
      "origine": 4564,
      "Comm": 4565,
      "Ġbritann": 4566,
      "Ġchacun": 4567,
      "Ġcontact": 4568,
      "Ã©rique": 4569,
      "Ġeverything": 4570,
      "Ġcolleagues": 4571,
      "ĠPolicy": 4572,
      "Ġtabac": 4573,
      "mission": 4574,
      "Ġpose": 4575,
      "Ġunem": 4576,
      "Ġeffects": 4577,
      "Ġimmigration": 4578,
      "Ġinvestment": 4579,
      "cc": 4580,
      "Ġconsol": 4581,
      "Ġconsens": 4582,
      "Ġsemaine": 4583,
      "ĠchÃ´": 4584,
      "Ġcommunity": 4585,
      "ĠHa": 4586,
      "Ġfonctionnement": 4587,
      "Vo": 4588,
      "Ġdir": 4589,
      "ĠBan": 4590,
      "Ġconsideration": 4591,
      "Ġ40": 4592,
      "Ġagriculteurs": 4593,
      "ested": 4594,
      "inking": 4595,
      "Ġexten": 4596,
      "Ġmonop": 4597,
      "Ġadopter": 4598,
      "mettre": 4599,
      "del": 4600,
      "Ġavenir": 4601,
      "Ġalloc": 4602,
      "ished": 4603,
      "Ġspee": 4604,
      "acco": 4605,
      "Ġeffets": 4606,
      "Ġnamely": 4607,
      "effic": 4608,
      "naires": 4609,
      "vÃ©e": 4610,
      "Ġavanc": 4611,
      "Ġcontenu": 4612,
      "ĠconformÃ©ment": 4613,
      "quate": 4614,
      "ending": 4615,
      "Ġtry": 4616,
      "Ġpron": 4617,
      "Ġconfront": 4618,
      "Ġattach": 4619,
      "Ġagricole": 4620,
      "Ġterritoire": 4621,
      "Ġjug": 4622,
      "Ġ24": 4623,
      "Ġadoption": 4624,
      "ologique": 4625,
      "Ġpriorities": 4626,
      "ĠfrontiÃ¨res": 4627,
      "iff": 4628,
      "Ġsent": 4629,
      "Ġhaut": 4630,
      "Ġstatut": 4631,
      "ĠcÃ´tÃ©": 4632,
      "imbabwe": 4633,
      "delÃł": 4634,
      "be": 4635,
      "Ġcut": 4636,
      "itarian": 4637,
      "Ġbear": 4638,
      "Ġexch": 4639,
      "Ġhommes": 4640,
      "Ġclim": 4641,
      "Ġlongtemps": 4642,
      "Ġparlementaire": 4643,
      "aign": 4644,
      "Ġtri": 4645,
      "isent": 4646,
      "ĠÃ©vent": 4647,
      "ĠadÃ©qu": 4648,
      "ĠNos": 4649,
      "aties": 4650,
      "Ġarr": 4651,
      "ĠHelsinki": 4652,
      "Ġ198": 4653,
      "Ġtravailler": 4654,
      "Ġconnection": 4655,
      "Ġministres": 4656,
      "ME": 4657,
      "Ġna": 4658,
      "unction": 4659,
      "Ġparmi": 4660,
      "Ġautom": 4661,
      "European": 4662,
      "ĠcrÃ©d": 4663,
      "Ġcomprendre": 4664,
      "Ġpurpose": 4665,
      "Ġpartir": 4666,
      "Ġusing": 4667,
      "Ġcivile": 4668,
      "ĠfÃ©licite": 4669,
      "Ġinvestig": 4670,
      "Ġexigences": 4671,
      "Ġassessment": 4672,
      "ĠGreece": 4673,
      "ĠprotÃ©ger": 4674,
      "Ġvos": 4675,
      "ĠSud": 4676,
      "Ġsoule": 4677,
      "Ġmalheureusement": 4678,
      "Ġpauvre": 4679,
      "val": 4680,
      "reaties": 4681,
      "Ġtransform": 4682,
      "exp": 4683,
      "Ġproducteurs": 4684,
      "Ġoverall": 4685,
      "ĠVer": 4686,
      "Ġfamily": 4687,
      "Ġconsensus": 4688,
      "line": 4689,
      "Ġgens": 4690,
      "Ġcomptes": 4691,
      "Ġobstac": 4692,
      "Ġjours": 4693,
      "When": 4694,
      "rought": 4695,
      "Ġpopul": 4696,
      "Ġphase": 4697,
      "Ġpoursuivre": 4698,
      "ĠEnvironment": 4699,
      "Ġlignes": 4700,
      "ulent": 4701,
      "Ġplann": 4702,
      "Ġsociales": 4703,
      "communications": 4704,
      "up": 4705,
      "Ġpure": 4706,
      "Ġdeath": 4707,
      "Ġparl": 4708,
      "Ġmech": 4709,
      "Ġobtain": 4710,
      "Ġpeuple": 4711,
      "ĠcommunautÃ©": 4712,
      "isant": 4713,
      "quÃ©e": 4714,
      "Ġfell": 4715,
      "Ġtob": 4716,
      "Ġgiving": 4717,
      "Ġ16": 4718,
      "ĠprocÃ©der": 4719,
      "ĠcohÃ©sion": 4720,
      "Ġracisme": 4721,
      "Ġdistribution": 4722,
      "ĠBritish": 4723,
      "Ġtrib": 4724,
      "ĠprocÃ¨s": 4725,
      "Ġdesc": 4726,
      "abor": 4727,
      "Ġpren": 4728,
      "Ġaffirm": 4729,
      "ĠmodÃ¨le": 4730,
      "Ġtobacco": 4731,
      "ES": 4732,
      "LAF": 4733,
      "More": 4734,
      "NG": 4735,
      "bal": 4736,
      "Ġreti": 4737,
      "Ġprovision": 4738,
      "ĠdÃ©g": 4739,
      "aging": 4740,
      "Ġsurpr": 4741,
      "ighted": 4742,
      "Ġcourt": 4743,
      "ĠJustice": 4744,
      "ĠÃ©lectron": 4745,
      "Ġconnaissance": 4746,
      "Furthermore": 4747,
      "uels": 4748,
      "vÃ©s": 4749,
      "arch": 4750,
      "Ġlesquelles": 4751,
      "ĠdÃ©cidÃ©": 4752,
      "Ġdespite": 4753,
      "Merci": 4754,
      "Ġrule": 4755,
      "Ġanything": 4756,
      "Ġtakes": 4757,
      "ĠtroisiÃ¨me": 4758,
      "Ġcircum": 4759,
      "ĠdÃ©charge": 4760,
      "Ġperspectives": 4761,
      "Bien": 4762,
      "uine": 4763,
      "esion": 4764,
      "Ã©ro": 4765,
      "tences": 4766,
      "Ġpromouv": 4767,
      "ĠdÃ©putÃ©": 4768,
      "ĠrÃ©union": 4769,
      "ĠMediterranean": 4770,
      "Ġinfluence": 4771,
      "Is": 4772,
      "oncer": 4773,
      "Ġtur": 4774,
      "Ġforms": 4775,
      "ĠcompÃ©tences": 4776,
      "ĠZimbabwe": 4777,
      "Ġquotas": 4778,
      "aie": 4779,
      "dÃ©": 4780,
      "estime": 4781,
      "Ġlat": 4782,
      "Ġrencont": 4783,
      "Ġparfois": 4784,
      "ĠdÃ©si": 4785,
      "Ġrecently": 4786,
      "argent": 4787,
      "Ġresponsable": 4788,
      "Ġreference": 4789,
      "Ġdiscussed": 4790,
      "Ġaffected": 4791,
      "Ġfournir": 4792,
      "Ġpractical": 4793,
      "Notre": 4794,
      "Ġbill": 4795,
      "verty": 4796,
      "Ġcourage": 4797,
      "Ġpoverty": 4798,
      "etary": 4799,
      "Ġintended": 4800,
      "ĠGrÃ¨ce": 4801,
      "Ġreferred": 4802,
      "Ġapporter": 4803,
      "Ġfaudrait": 4804,
      "200": 4805,
      "Ġenable": 4806,
      "ails": 4807,
      "Ġtravers": 4808,
      "Ġmodel": 4809,
      "Ġresponsabil": 4810,
      "ĠreprÃ©sentants": 4811,
      "Ġconsiderable": 4812,
      "Ġobligation": 4813,
      "Ġvenir": 4814,
      "mÃªmes": 4815,
      "Ġdr": 4816,
      "Ġever": 4817,
      "ĠconsidÃ¨re": 4818,
      "ĠconsidÃ©r": 4819,
      "Ġaccordance": 4820,
      "Ġincreased": 4821,
      "Ġdamage": 4822,
      "gl": 4823,
      "lation": 4824,
      "oot": 4825,
      "ĠmonÃ©taire": 4826,
      "Ġaround": 4827,
      "Ġfinancier": 4828,
      "ĠsÃ©rieux": 4829,
      "Ġbureauc": 4830,
      "Ġlabour": 4831,
      "ands": 4832,
      "Ġ21": 4833,
      "oyau": 4834,
      "Ġtransfer": 4835,
      "Ġdonne": 4836,
      "ĠWorld": 4837,
      "Ġfamili": 4838,
      "Ġtechnology": 4839,
      "ĠDemocr": 4840,
      "Ġreconstruction": 4841,
      "Que": 4842,
      "nelles": 4843,
      "oule": 4844,
      "ĠprÃ©vention": 4845,
      "ĠcapacitÃ©": 4846,
      "Ġcentre": 4847,
      "Ġtook": 4848,
      "Ġpromouvoir": 4849,
      "Ġtim": 4850,
      "Ġdays": 4851,
      "Ġtrying": 4852,
      "accÃ¨s": 4853,
      "rontal": 4854,
      "Ġscope": 4855,
      "Ġunacceptable": 4856,
      "Ġsavez": 4857,
      "Ġdix": 4858,
      "Ġfinally": 4859,
      "Ġcertaine": 4860,
      "asile": 4861,
      "Ġpuisque": 4862,
      "Ġliste": 4863,
      "tiens": 4864,
      "Ġsurve": 4865,
      "Ġconcre": 4866,
      "Ġcoher": 4867,
      "velopment": 4868,
      "rief": 4869,
      "Ġprochain": 4870,
      "Ġcreating": 4871,
      "fait": 4872,
      "Ġhuge": 4873,
      "ĠÃ©p": 4874,
      "ĠcomitÃ©": 4875,
      "Ġchiff": 4876,
      "Ġcover": 4877,
      "Ġabst": 4878,
      "oix": 4879,
      "Ġmener": 4880,
      "Ġplupart": 4881,
      "Ġpetites": 4882,
      "Os": 4883,
      "hol": 4884,
      "itable": 4885,
      "osl": 4886,
      "ĠprÃ©f": 4887,
      "Ġprice": 4888,
      "exist": 4889,
      "tructural": 4890,
      "Ġrisks": 4891,
      "Ġtourisme": 4892,
      "Ġfaudra": 4893,
      "Ġcentral": 4894,
      "ĠIntergovernmental": 4895,
      "He": 4896,
      "Lors": 4897,
      "know": 4898,
      "uly": 4899,
      "Ġrate": 4900,
      "ĠentiÃ¨re": 4901,
      "Ġuni": 4902,
      "ĠBud": 4903,
      "Ġinspe": 4904,
      "ĠHuman": 4905,
      "Ġmontre": 4906,
      "Ġequal": 4907,
      "Of": 4908,
      "Ġauquel": 4909,
      "ĠSol": 4910,
      "ĠBank": 4911,
      "Ġentend": 4912,
      "Ġmeasure": 4913,
      "Ġpowers": 4914,
      "Ġentire": 4915,
      "Ġtransi": 4916,
      "of": 4917,
      "Ġpourraient": 4918,
      "agriculture": 4919,
      "ological": 4920,
      "Ġpublics": 4921,
      "Ġefficient": 4922,
      "Ġpotential": 4923,
      "VoilÃł": 4924,
      "Ġlot": 4925,
      "ĠmÃªmes": 4926,
      "Ġheard": 4927,
      "ĠspÃ©cifique": 4928,
      "Ġfellow": 4929,
      "ually": 4930,
      "iles": 4931,
      "Ġrespecter": 4932,
      "Ġcauses": 4933,
      "intÃ©gration": 4934,
      "ĠMEP": 4935,
      "Ġrefugees": 4936,
      "ev": 4937,
      "Ġproven": 4938,
      "eth": 4939,
      "Ġchoix": 4940,
      "Ġilleg": 4941,
      "ports": 4942,
      "Ġthanks": 4943,
      "Ġdispon": 4944,
      "AssemblÃ©e": 4945,
      "Ġalong": 4946,
      "Ġyesterday": 4947,
      "Ã©galitÃ©": 4948,
      "Ġvaleur": 4949,
      "Ġcreated": 4950,
      "Ġschool": 4951,
      "Question": 4952,
      "Prem": 4953,
      "dom": 4954,
      "Ġoil": 4955,
      "ĠStructural": 4956,
      "Ġstaff": 4957,
      "Ġaffaire": 4958,
      "Ġaway": 4959,
      "Ġmodifi": 4960,
      "Ġbusinesses": 4961,
      "Ġbodies": 4962,
      "Ġreached": 4963,
      "Ġfocus": 4964,
      "Ġligne": 4965,
      "Ġmas": 4966,
      "Ġwr": 4967,
      "Ġbrought": 4968,
      "ressive": 4969,
      "Ġalmost": 4970,
      "ĠprÃ¨s": 4971,
      "Ġaller": 4972,
      "Ġrelig": 4973,
      "Ġcrise": 4974,
      "Ġstatus": 4975,
      "Ġelections": 4976,
      "Ġpleinement": 4977,
      "Ġalternative": 4978,
      "Ġnaturellement": 4979,
      "Ġtypes": 4980,
      "jud": 4981,
      "wise": 4982,
      "Ġpil": 4983,
      "ouvel": 4984,
      "Ġoutside": 4985,
      "ĠconsidÃ©rÃ©": 4986,
      "ĠdÃ©clarÃ©": 4987,
      "Ġscientific": 4988,
      "Ġdirig": 4989,
      "itaires": 4990,
      "Ġhier": 4991,
      "Ġhaute": 4992,
      "Ġcoming": 4993,
      "ĠSouth": 4994,
      "Ġretard": 4995,
      "Ġpressure": 4996,
      "Ġtack": 4997,
      "ĠcatÃ©g": 4998,
      "arily": 4999,
      "Ġreality": 5000,
      "Ġvise": 5001,
      "Ġtraite": 5002,
      "Ġtransp": 5003,
      "Ġcontinent": 5004,
      "Ġspir": 5005,
      "ĠFunds": 5006,
      "Ġtransition": 5007,
      "App": 5008,
      "cs": 5009,
      "ka": 5010,
      "vered": 5011,
      "Ġvit": 5012,
      "Ġparle": 5013,
      "Ġexces": 5014,
      "Ġlimited": 5015,
      "Ġestablishing": 5016,
      "ĠprÃ©voit": 5017,
      "ĠUS": 5018,
      "Ġseriously": 5019,
      "Ġincorpor": 5020,
      "Ġinstallations": 5021,
      "Ġcircumst": 5022,
      "inf": 5023,
      "Ġbrief": 5024,
      "Ġyeux": 5025,
      "Ġsoi": 5026,
      "Ġadress": 5027,
      "Ġminim": 5028,
      "ology": 5029,
      "Ġcreation": 5030,
      "ĠdÃ©finition": 5031,
      "ĠItal": 5032,
      "Ġracism": 5033,
      "ĠextÃ©rieur": 5034,
      "Ġdirectement": 5035,
      "Ġsti": 5036,
      "orse": 5037,
      "Ġassure": 5038,
      "Ġfavorable": 5039,
      "Ġconflits": 5040,
      "ĠpauvretÃ©": 5041,
      "Ġbureaucra": 5042,
      "ĠBudget": 5043,
      "OM": 5044,
      "Ġdign": 5045,
      "ĠMor": 5046,
      "ĠexpÃ©ri": 5047,
      "Ġrapporteurs": 5048,
      "ĠentraÃ®": 5049,
      "Ġindependent": 5050,
      "ĠresponsabilitÃ©s": 5051,
      "ĠimmÃ©di": 5052,
      "Ġparliamentary": 5053,
      "mage": 5054,
      "Ġul": 5055,
      "rez": 5056,
      "Ġacross": 5057,
      "Ġproportion": 5058,
      "Ġcaused": 5059,
      "ĠÃ©lections": 5060,
      "Ġeffectively": 5061,
      "Ġmedium": 5062,
      "Ġfiscal": 5063,
      "ĠDirective": 5064,
      "ĠBelg": 5065,
      "af": 5066,
      "Ġbord": 5067,
      "ĠdÃ©cl": 5068,
      "Ġage": 5069,
      "Ġtradu": 5070,
      "Ġallons": 5071,
      "Ġmobil": 5072,
      "Ġgoes": 5073,
      "ĠrÃ©soud": 5074,
      "ĠrÃ©formes": 5075,
      "Ġopportunities": 5076,
      "adoption": 5077,
      "tons": 5078,
      "erves": 5079,
      "cipl": 5080,
      "Ġdiver": 5081,
      "Ġrelatif": 5082,
      "Ġstructural": 5083,
      "Ġpaie": 5084,
      "Ġauthority": 5085,
      "Ġconstructive": 5086,
      "Ġexperts": 5087,
      "Ġnatural": 5088,
      "Ġcircumstances": 5089,
      "Ġvoy": 5090,
      "venue": 5091,
      "Ġtraiter": 5092,
      "Ġpossibility": 5093,
      "Ġconfer": 5094,
      "Ġdispose": 5095,
      "Ġpratiques": 5096,
      "ĠrÃ©flex": 5097,
      "Ġviolations": 5098,
      "Ġcampaign": 5099,
      "Ġmaximum": 5100,
      "ĠchÃ´mage": 5101,
      "Certain": 5102,
      "idÃ©e": 5103,
      "Ġoubli": 5104,
      "Ġproduct": 5105,
      "Ġexpos": 5106,
      "Ġmyself": 5107,
      "Ġpeuples": 5108,
      "Ġderniers": 5109,
      "Ġcommitted": 5110,
      "Ġfru": 5111,
      "ĠCo": 5112,
      "Ġweak": 5113,
      "elling": 5114,
      "Ġ1996": 5115,
      "Ġrenew": 5116,
      "Ġconsommateur": 5117,
      "ĠsoulignÃ©": 5118,
      "entral": 5119,
      "Ġsound": 5120,
      "quÃ©s": 5121,
      "teen": 5122,
      "Ġdesign": 5123,
      "ĠdÃ©pend": 5124,
      "Ġresponsables": 5125,
      "Ġuseful": 5126,
      "Ġbesoins": 5127,
      "Ġgraves": 5128,
      "Ġmodification": 5129,
      "Ġprochaine": 5130,
      "Ġaugmentation": 5131,
      "Ġsustainable": 5132,
      "ĠrÃ©v": 5133,
      "Ġchef": 5134,
      "Ġpeine": 5135,
      "Ġhumains": 5136,
      "Ġcross": 5137,
      "Afrique": 5138,
      "Ġunemployment": 5139,
      "OT": 5140,
      "itions": 5141,
      "anci": 5142,
      "ark": 5143,
      "Ã¨tement": 5144,
      "Ġpermis": 5145,
      "Ġtempor": 5146,
      "Ġviews": 5147,
      "introdu": 5148,
      "iÃ©e": 5149,
      "pol": 5150,
      "Ġade": 5151,
      "Ġsource": 5152,
      "Ġdisposition": 5153,
      "ĠOr": 5154,
      "Ġorganised": 5155,
      "ĠrÃ©gionale": 5156,
      "Ġreconn": 5157,
      "Ġadditional": 5158,
      "Ġtrafficking": 5159,
      "HO": 5160,
      "Ġland": 5161,
      "orable": 5162,
      "Ġmauv": 5163,
      "Ġstatis": 5164,
      "Ġclon": 5165,
      "ĠRoyau": 5166,
      "Ġtotally": 5167,
      "Ġbreve": 5168,
      "Ġstrict": 5169,
      "Ġconvergence": 5170,
      "ĠRoyaume": 5171,
      "Ġvia": 5172,
      "ĠCentral": 5173,
      "agir": 5174,
      "acy": 5175,
      "Ġmilli": 5176,
      "Ġpartenaires": 5177,
      "intention": 5178,
      "Ġwor": 5179,
      "resse": 5180,
      "Ġliving": 5181,
      "Ġcomplete": 5182,
      "Ġpersonal": 5183,
      "yond": 5184,
      "ĠthÃ¨me": 5185,
      "ĠmÃ©r": 5186,
      "ustr": 5187,
      "Ġbeyond": 5188,
      "acer": 5189,
      "Ġsubs": 5190,
      "Ġrespond": 5191,
      "Ġdevelopments": 5192,
      "Ġatteindre": 5193,
      "Ġdifficulties": 5194,
      "Ġaccession": 5195,
      "Ġcondemn": 5196,
      "ane": 5197,
      "itation": 5198,
      "Ġalco": 5199,
      "Ġsea": 5200,
      "ĠprÃ©sence": 5201,
      "Ãªcher": 5202,
      "ĠTam": 5203,
      "Ġspeed": 5204,
      "Ġfraud": 5205,
      "Ã©raux": 5206,
      "Ġimplementing": 5207,
      "ĠPortugal": 5208,
      "ublic": 5209,
      "Âº": 5210,
      "itors": 5211,
      "ĠÃ¢": 5212,
      "Ġmatin": 5213,
      "Ġrequires": 5214,
      "Ġsetting": 5215,
      "Ġreturn": 5216,
      "Ġdiscussing": 5217,
      "ĠAmendments": 5218,
      "Ġtire": 5219,
      "ush": 5220,
      "ĠaccÃ¨s": 5221,
      "Ġaccidents": 5222,
      "Ġposer": 5223,
      "Ġemplois": 5224,
      "Ġspeaking": 5225,
      "lÃ©ch": 5226,
      "Ġdangerous": 5227,
      "Ġfas": 5228,
      "ĠsuÃ©d": 5229,
      "Ġinstead": 5230,
      "Ġpointed": 5231,
      "ĠrÃ©gul": 5232,
      "Ġcontradic": 5233,
      "...": 5234,
      "Ġsuffisamment": 5235,
      "))": 5236,
      "oz": 5237,
      "Ġdetermin": 5238,
      "Ġmonn": 5239,
      "uxemb": 5240,
      "Ġresolutions": 5241,
      "Ġadvant": 5242,
      "Ġstop": 5243,
      "ĠTunis": 5244,
      "Ġexpend": 5245,
      "Ġformer": 5246,
      "ĠconsÃ©quence": 5247,
      "Ã©valuation": 5248,
      "ĠdÃ©finiti": 5249,
      "ĠdÃ©clarations": 5250,
      "Ġdirectly": 5251,
      "Ġconscience": 5252,
      "ĠIsrael": 5253,
      "uxembour": 5254,
      "ĠNous": 5255,
      "Ġcle": 5256,
      "Ġfoot": 5257,
      "Ġimpression": 5258,
      "Uni": 5259,
      "ĠamÃ©ric": 5260,
      "atiques": 5261,
      "Ġdeveloped": 5262,
      "ĠChina": 5263,
      "Ġports": 5264,
      "Ġgoods": 5265,
      "Ġmorning": 5266,
      "Ġconclure": 5267,
      "attention": 5268,
      "Ġinterventions": 5269,
      "ĠChine": 5270,
      "Ġseek": 5271,
      "Ġoccur": 5272,
      "Ġsuivre": 5273,
      "where": 5274,
      "Ġtreatment": 5275,
      "ĠDÃ©putÃ©s": 5276,
      "ĠrÃ©soudre": 5277,
      "Ġexpenditure": 5278,
      "men": 5279,
      "ttes": 5280,
      "ĠdÃ©n": 5281,
      "Ġvision": 5282,
      "Ġveulent": 5283,
      "Ġrenforcement": 5284,
      "Ġdelay": 5285,
      "Ġdossier": 5286,
      "Ġinvestissements": 5287,
      "Ġways": 5288,
      "cto": 5289,
      "Ġavions": 5290,
      "Ã©taires": 5291,
      "Ġobtenir": 5292,
      "Ġoccup": 5293,
      "ĠBanque": 5294,
      "gent": 5295,
      "ĠÂŃ": 5296,
      "Ġnations": 5297,
      "etÃ©": 5298,
      "ĠNice": 5299,
      "Ġengagement": 5300,
      "Ġpauvres": 5301,
      "ufact": 5302,
      "PremiÃ¨rement": 5303,
      "Ã©ducation": 5304,
      "Ġcra": 5305,
      "ompl": 5306,
      "Ġroute": 5307,
      "rÃ©es": 5308,
      "Inde": 5309,
      "Ġestime": 5310,
      "Ġcontrary": 5311,
      "Ġpositif": 5312,
      "Ġsolidarity": 5313,
      "Ġproperly": 5314,
      "ĠÃ©trangÃ¨re": 5315,
      "Ã©diterranÃ©": 5316,
      "Ġconsolid": 5317,
      "cers": 5318,
      "dra": 5319,
      "onde": 5320,
      "Ġimplic": 5321,
      "Ġconsiste": 5322,
      "Ġprend": 5323,
      "ival": 5324,
      "Ġcommunes": 5325,
      "Ġjustement": 5326,
      "ĠlibertÃ©s": 5327,
      "ĠmalgrÃ©": 5328,
      "Ã©volution": 5329,
      "ocrates": 5330,
      "Ġrestrictions": 5331,
      "ĠspÃ©cifiques": 5332,
      "ĠrÃ©seaux": 5333,
      "30": 5334,
      "Ã¨rent": 5335,
      "Ġatti": 5336,
      "Ġdistin": 5337,
      "Ġgrant": 5338,
      "expl": 5339,
      "ĠLuxembour": 5340,
      "ologie": 5341,
      "ĠWh": 5342,
      "Ġpermettra": 5343,
      "Ġexplan": 5344,
      "Ġstated": 5345,
      "ĠcontrÃ´les": 5346,
      "oslav": 5347,
      "Ġbody": 5348,
      "Ġhalf": 5349,
      "Ġeuros": 5350,
      "Ġmanufact": 5351,
      "Ġaider": 5352,
      "Ġretra": 5353,
      "Ġallowed": 5354,
      "Ġevents": 5355,
      "ussels": 5356,
      "ĠSuÃ¨de": 5357,
      "Ġfil": 5358,
      "ĠparlÃ©": 5359,
      "ctric": 5360,
      "Ġcomporte": 5361,
      "Ġproduce": 5362,
      "Ġfirstly": 5363,
      "Ġrenouvel": 5364,
      "Ġviolation": 5365,
      "Ġexige": 5366,
      "ĠDevelopment": 5367,
      "ĠdÃ©lÃ©gation": 5368,
      "Ġexclusive": 5369,
      "ĠcrÃ©dits": 5370,
      "ĠLuxembourg": 5371,
      "Car": 5372,
      "Ġdri": 5373,
      "Ġlic": 5374,
      "Ġpourtant": 5375,
      "issements": 5376,
      "Ġprepar": 5377,
      "Ġindustrie": 5378,
      "Ġhumanitarian": 5379,
      "fect": 5380,
      "Ġpaid": 5381,
      "igrants": 5382,
      "ĠSwedish": 5383,
      "ATO": 5384,
      "cadre": 5385,
      "fs": 5386,
      "Ġsenti": 5387,
      "Ġsources": 5388,
      "rovi": 5389,
      "ticles": 5390,
      "Ġmater": 5391,
      "Ġopposition": 5392,
      "Ġreduction": 5393,
      "cemment": 5394,
      "rehen": 5395,
      "times": 5396,
      "Ġleave": 5397,
      "Ã¨ge": 5398,
      "Ġchez": 5399,
      "ĠcomplÃ©ment": 5400,
      "Ġcrises": 5401,
      "ĠÃ©valuation": 5402,
      "Ġensuring": 5403,
      "Ġrenforc": 5404,
      "Ġrecognise": 5405,
      "Ġexprimer": 5406,
      "Ġfigure": 5407,
      "ĠcompÃ©tence": 5408,
      "Ġsimilar": 5409,
      "ĠvÃ©hic": 5410,
      "Ġcig": 5411,
      "Ġthus": 5412,
      "Ġvan": 5413,
      "ĠÃ©tat": 5414,
      "Ġrecy": 5415,
      "ĠnÃ©anmoins": 5416,
      "Ġsupported": 5417,
      "ateral": 5418,
      "Ġferrovi": 5419,
      "Ġjouer": 5420,
      "Ġfaisant": 5421,
      "ĠsolidaritÃ©": 5422,
      "Ã©cution": 5423,
      "Ġclaim": 5424,
      "ynam": 5425,
      "Com": 5426,
      "Sur": 5427,
      "ening": 5428,
      "Ġceci": 5429,
      "forme": 5430,
      "Ġaccepted": 5431,
      "blique": 5432,
      "Ġactivity": 5433,
      "Ġapplies": 5434,
      "Ġsuivi": 5435,
      "ĠcohÃ©rence": 5436,
      "Ġmanifest": 5437,
      "Ġspirit": 5438,
      "enge": 5439,
      "Ġpert": 5440,
      "Ġside": 5441,
      "Ġdeclar": 5442,
      "Ġparts": 5443,
      "Ġpourrons": 5444,
      "ounts": 5445,
      "anges": 5446,
      "Ġpression": 5447,
      "cteur": 5448,
      "Ã§ons": 5449,
      "ĠidÃ©e": 5450,
      "Ġnationale": 5451,
      "Ġchallenge": 5452,
      "Ġconvainc": 5453,
      "ĠreÃ§u": 5454,
      "20": 5455,
      "Est": 5456,
      "any": 5457,
      "ĠNord": 5458,
      "Ġemerg": 5459,
      "Ġinternationales": 5460,
      "Ġpenal": 5461,
      "Ġbeginning": 5462,
      "Ġnetworks": 5463,
      "Ġprobably": 5464,
      "Ġsafegu": 5465,
      "Ġcapacity": 5466,
      "Ġtard": 5467,
      "Ġquelles": 5468,
      "Ġled": 5469,
      "ĠauprÃ¨s": 5470,
      "Ġfaci": 5471,
      "ĠrÃ©d": 5472,
      "Ġbudgets": 5473,
      "Ġhighly": 5474,
      "Ġdealt": 5475,
      "Ġdealing": 5476,
      "Ġstandard": 5477,
      "Ġsensible": 5478,
      "ĠprÃ©occupations": 5479,
      "ĠconcrÃ¨tes": 5480,
      "Rapport": 5481,
      "nels": 5482,
      "Ġdynam": 5483,
      "ĠnÂº": 5484,
      "urgence": 5485,
      "Ġenvoy": 5486,
      "ters": 5487,
      "Ġexer": 5488,
      "Ġshown": 5489,
      "Ġprices": 5490,
      "Ġdevront": 5491,
      "Ġannual": 5492,
      "Ġessay": 5493,
      "ĠMEDA": 5494,
      "ĠSweden": 5495,
      "Ġsubmitted": 5496,
      "ĠespÃ©rons": 5497,
      "Perm": 5498,
      "Ġlac": 5499,
      "rÃ©ci": 5500,
      "member": 5501,
      "nex": 5502,
      "Ã©gard": 5503,
      "Ġsouff": 5504,
      "rices": 5505,
      "Ġconvin": 5506,
      "Ġfondamental": 5507,
      "Ġlutter": 5508,
      "Ġdisposer": 5509,
      "ĠfranÃ§ais": 5510,
      "Now": 5511,
      "Ġquo": 5512,
      "Ġhome": 5513,
      "ĠMal": 5514,
      "Ġfaits": 5515,
      "ĠrÃ©c": 5516,
      "ĠII": 5517,
      "Ġdiscipl": 5518,
      "Ġcounter": 5519,
      "odes": 5520,
      "ĠdÃ©bats": 5521,
      "Ġactuel": 5522,
      "lands": 5523,
      "Ġutiliser": 5524,
      "ĠBrussels": 5525,
      "Ġexchange": 5526,
      "Ġunfortunately": 5527,
      "Ġforte": 5528,
      "Ġimag": 5529,
      "Ġlooking": 5530,
      "ĠrÃ©seau": 5531,
      "Ġtarget": 5532,
      "Do": 5533,
      "oign": 5534,
      "pir": 5535,
      "Ġwait": 5536,
      "alitÃ©s": 5537,
      "pere": 5538,
      "Ġcontro": 5539,
      "Ġabou": 5540,
      "ĠparticuliÃ¨re": 5541,
      "fications": 5542,
      "Ġexpression": 5543,
      "ĠdÃ©mont": 5544,
      "Ġcitoyen": 5545,
      "lemagne": 5546,
      "Ġfonctionnaires": 5547,
      "Ġsuivante": 5548,
      "50": 5549,
      "rlande": 5550,
      "Ã©tique": 5551,
      "Ġrou": 5552,
      "Ġalone": 5553,
      "Ġagir": 5554,
      "ĠÃ©vÃ©": 5555,
      "Ġviande": 5556,
      "Ġparticiper": 5557,
      "ĠsupplÃ©mentaires": 5558,
      "Ġobviously": 5559,
      "Ġbig": 5560,
      "Ġproposer": 5561,
      "aced": 5562,
      "Ġmarchand": 5563,
      "Ġgenre": 5564,
      "Ġdouble": 5565,
      "Ġimproving": 5566,
      "Ġanimal": 5567,
      "Ġspeech": 5568,
      "Ġarrang": 5569,
      "Ġillegal": 5570,
      "Ġsor": 5571,
      "urally": 5572,
      "Ġentit": 5573,
      "Ġposs": 5574,
      "ĠNATO": 5575,
      "Ġproducers": 5576,
      "Ġrecord": 5577,
      "assurer": 5578,
      "ĠÃ©levÃ©": 5579,
      "ĠprÃ©vu": 5580,
      "Ġinstitutional": 5581,
      "Ġmondial": 5582,
      "Ġconflit": 5583,
      "Ġarguments": 5584,
      "ĠGermany": 5585,
      "Ġanalysis": 5586,
      "ĠÃ©lectronique": 5587,
      "rement": 5588,
      "Ġdecl": 5589,
      "Ġdeep": 5590,
      "urance": 5591,
      "teur": 5592,
      "uxelles": 5593,
      "Ġreforms": 5594,
      "ĠnuclÃ©aire": 5595,
      "Permettez": 5596,
      "AC": 5597,
      "Mal": 5598,
      "Ġself": 5599,
      "Ġlegitim": 5600,
      "institution": 5601,
      "Ġurge": 5602,
      "Ġcommitments": 5603,
      "Ġcohesion": 5604,
      "Ġspeakers": 5605,
      "ĠtÃ¢che": 5606,
      "ĠIraq": 5607,
      "ĠTampere": 5608,
      "quÃ©es": 5609,
      "Ġreje": 5610,
      "Ġniveaux": 5611,
      "public": 5612,
      "Ġsouhaiterais": 5613,
      "Ġutilisation": 5614,
      "ĠcriminalitÃ©": 5615,
      "ĠFundamental": 5616,
      "Ġlearn": 5617,
      "lo": 5618,
      "off": 5619,
      "Ġeas": 5620,
      "uty": 5621,
      "Ġfai": 5622,
      "tedly": 5623,
      "Ġvoit": 5624,
      "ĠRom": 5625,
      "Ġversion": 5626,
      "Ġcircons": 5627,
      "Ġmilitaire": 5628,
      "Ġfaisons": 5629,
      "Ġcontributions": 5630,
      "acio": 5631,
      "Pe": 5632,
      "Since": 5633,
      "jus": 5634,
      "uellement": 5635,
      "Ġcateg": 5636,
      "Ġthinking": 5637,
      "Ġfunction": 5638,
      "identi": 5639,
      "Ġchois": 5640,
      "ĠadhÃ©sion": 5641,
      "Ġaborder": 5642,
      "prises": 5643,
      "Ġleaders": 5644,
      "Ġreprises": 5645,
      "ĠPalacio": 5646,
      "Ġhighlight": 5647,
      "Ġbillion": 5648,
      "Ġcigare": 5649,
      "Ġdot": 5650,
      "Ġsil": 5651,
      "quently": 5652,
      "Ġeasi": 5653,
      "Ġname": 5654,
      "ĠCI": 5655,
      "Ġparfait": 5656,
      "ĠMay": 5657,
      "ĠrÃ©cemment": 5658,
      "oine": 5659,
      "ĠBur": 5660,
      "ĠÃ©tudi": 5661,
      "Ġraisonn": 5662,
      "Ġmalad": 5663,
      "Ġjuridiques": 5664,
      "Ġindustrial": 5665,
      "cembre": 5666,
      "ccord": 5667,
      "iction": 5668,
      "ically": 5669,
      "Ġdesire": 5670,
      "ĠdÃ©cembre": 5671,
      "Ġfaite": 5672,
      "Ġvoix": 5673,
      "Ġsupprim": 5674,
      "Ġintroduction": 5675,
      "Ġtaxation": 5676,
      "Ġfri": 5677,
      "Ġexc": 5678,
      "Ġrepl": 5679,
      "Ġutile": 5680,
      "Ġ22": 5681,
      "Ġinsist": 5682,
      "Ġcontribute": 5683,
      "cember": 5684,
      "Commission": 5685,
      "existence": 5686,
      "ĠMEPs": 5687,
      "cr": 5688,
      "tition": 5689,
      "Ġwanted": 5690,
      "Ġfear": 5691,
      "augment": 5692,
      "Ġinterven": 5693,
      "Ġ28": 5694,
      "Ġsoumis": 5695,
      "Ġrester": 5696,
      "verse": 5697,
      "Ġprovo": 5698,
      "Ġproviding": 5699,
      "Ne": 5700,
      "ape": 5701,
      "Ġaver": 5702,
      "Ġajouter": 5703,
      "organisation": 5704,
      "Ġcrimes": 5705,
      "ĠlimitÃ©": 5706,
      "Ġconstant": 5707,
      "ĠDecember": 5708,
      "Ġactes": 5709,
      "ĠBruxelles": 5710,
      "Ġdelegation": 5711,
      "bly": 5712,
      "arly": 5713,
      "Ġworth": 5714,
      "Ġenorm": 5715,
      "ĠrÃ©pÃ©": 5716,
      "tÃ©e": 5717,
      "Ġcommunications": 5718,
      "vidence": 5719,
      "ĠdÃ©fendre": 5720,
      "Ġchangement": 5721,
      "Ġmaintenir": 5722,
      "Ġpubliques": 5723,
      "Ġwrong": 5724,
      "Ġexcessive": 5725,
      "rant": 5726,
      "rans": 5727,
      "inions": 5728,
      "Ġfif": 5729,
      "ids": 5730,
      "Ġreply": 5731,
      "Ġ23": 5732,
      "ĠTreaties": 5733,
      "casions": 5734,
      "Ġknown": 5735,
      "Ġvehic": 5736,
      "Ġrightly": 5737,
      "Ġespace": 5738,
      "Ġmedia": 5739,
      "Ġexploitation": 5740,
      "ĠrÃ©jouis": 5741,
      "inze": 5742,
      "rois": 5743,
      "ĠÃ©largissement": 5744,
      "tics": 5745,
      "ĠTib": 5746,
      "Ġmeilleur": 5747,
      "Ġsuccessful": 5748,
      "fied": 5749,
      "lig": 5750,
      "Ġ[": 5751,
      "Ġdead": 5752,
      "Ġfirm": 5753,
      "outes": 5754,
      "Ġcompli": 5755,
      "uded": 5756,
      "Ġsyn": 5757,
      "Ġmainly": 5758,
      "ĠintÃ©grÃ©": 5759,
      "Ġdrawn": 5760,
      "Ġgaran": 5761,
      "ĠamÃ©lior": 5762,
      "ĠMinisters": 5763,
      "ĠPalestin": 5764,
      "Ġacquis": 5765,
      "ĠBerlin": 5766,
      "Ġlaisser": 5767,
      "efficacitÃ©": 5768,
      "Ġmonnaie": 5769,
      "Ã©le": 5770,
      "reland": 5771,
      "Ġconj": 5772,
      "Ġenqu": 5773,
      "Ġenvers": 5774,
      "idd": 5775,
      "amber": 5776,
      "Ġtrag": 5777,
      "Ġmanner": 5778,
      "ĠconcernÃ©s": 5779,
      "Ġproduced": 5780,
      "Ġpromot": 5781,
      "Ġoccasions": 5782,
      "ĠdÃ©lai": 5783,
      "ĠRepublic": 5784,
      "Aujourd": 5785,
      "oise": 5786,
      "ÃŃ": 5787,
      "Ġerre": 5788,
      "Ġlater": 5789,
      "tiers": 5790,
      "Ġneg": 5791,
      "Ġpourront": 5792,
      "ĠprÃ©p": 5793,
      "ĠAt": 5794,
      "Ġmerely": 5795,
      "Mrs": 5796,
      "Ġpermettez": 5797,
      "Ġcooper": 5798,
      "Ġdraf": 5799,
      "Ġfulf": 5800,
      "Ġ2002": 5801,
      "Ġcritique": 5802,
      "Ġexactly": 5803,
      "Ġalcohol": 5804,
      "iels": 5805,
      "Ġsembl": 5806,
      "Ġdeme": 5807,
      "ury": 5808,
      "Ġplain": 5809,
      "Ġlives": 5810,
      "Ġprefer": 5811,
      "Ġdiscuter": 5812,
      "Ġpresque": 5813,
      "Ã©quili": 5814,
      "Ġgarantie": 5815,
      "Ġappropriations": 5816,
      "Ġdisposons": 5817,
      "Ġengagements": 5818,
      "GC": 5819,
      "Some": 5820,
      "kish": 5821,
      "making": 5822,
      "roc": 5823,
      "Ġreject": 5824,
      "Ġvert": 5825,
      "ĠPaper": 5826,
      "Ġraise": 5827,
      "Ġintend": 5828,
      "Ġsometimes": 5829,
      "ĠJune": 5830,
      "Ġagricoles": 5831,
      "Ġmilitaires": 5832,
      "Ġparlementaires": 5833,
      "encies": 5834,
      "IF": 5835,
      "cale": 5836,
      "Ġspend": 5837,
      "Ġrise": 5838,
      "astr": 5839,
      "ĠÃī": 5840,
      "Ġjuin": 5841,
      "ĠrÃ©par": 5842,
      "opinion": 5843,
      "ĠIreland": 5844,
      "Ġtourism": 5845,
      "Ġpenser": 5846,
      "Ġpartenariat": 5847,
      "Ġofficials": 5848,
      "Ġbritannique": 5849,
      "ĠSolana": 5850,
      "Ġduty": 5851,
      "ined": 5852,
      "reci": 5853,
      "orde": 5854,
      "ares": 5855,
      "oser": 5856,
      "ontrol": 5857,
      "Ġimpose": 5858,
      "ĠliÃ©s": 5859,
      "Ġinsuff": 5860,
      "ĠLivre": 5861,
      "ĠreprÃ©sentant": 5862,
      "Ġtaxes": 5863,
      "Ġcorrecte": 5864,
      "Ġcharte": 5865,
      "Ġcolleague": 5866,
      "Ġrepeat": 5867,
      "Ġcatastrophe": 5868,
      "io": 5869,
      "Ġinacceptable": 5870,
      "Ġsud": 5871,
      "ĠarrÃª": 5872,
      "evertheless": 5873,
      "Ġmaintien": 5874,
      "Ġdemands": 5875,
      "ĠWest": 5876,
      "ĠdÃ©mocratiques": 5877,
      "Ġorientations": 5878,
      "ĠÃ©nor": 5879,
      "ĠLiber": 5880,
      "Ġobstacles": 5881,
      "oure": 5882,
      "Ġmaritime": 5883,
      "ĠÃ©volution": 5884,
      "Ġcurrency": 5885,
      "Ġglobale": 5886,
      "diovis": 5887,
      "Ġnormal": 5888,
      "Ġpetits": 5889,
      "immigration": 5890,
      "Ġborders": 5891,
      "Ġmilliards": 5892,
      "Ġdic": 5893,
      "Ġwid": 5894,
      "Ġwrit": 5895,
      "Ġconventions": 5896,
      "ĠvÃ©ri": 5897,
      "Ġwithdra": 5898,
      "the": 5899,
      "ĠÃ©tro": 5900,
      "Ġclosely": 5901,
      "ĠAustrian": 5902,
      "Ġearlier": 5903,
      "ĠsupplÃ©mentaire": 5904,
      "Ġstudy": 5905,
      "bation": 5906,
      "gal": 5907,
      "riÃ¨re": 5908,
      "ĠEconomic": 5909,
      "Ġmai": 5910,
      "Ġsurv": 5911,
      "Ġlik": 5912,
      "Ġcompati": 5913,
      "Ġremains": 5914,
      "aving": 5915,
      "Ġopinions": 5916,
      "Ġinvolving": 5917,
      "Ġblanc": 5918,
      "Ġremarques": 5919,
      "Ġobservations": 5920,
      "Sub": 5921,
      "cri": 5922,
      "uÃ©": 5923,
      "enh": 5924,
      "Ġwond": 5925,
      "Ġacknow": 5926,
      "Ġfinalement": 5927,
      "Ġsites": 5928,
      "Ã©nom": 5929,
      "ĠNew": 5930,
      "Ġpresse": 5931,
      "Ġhumaine": 5932,
      "Ġcritiques": 5933,
      "Ġ80": 5934,
      "Ġsuspend": 5935,
      "Ġgrounds": 5936,
      "ĠmÃ©rite": 5937,
      "Ġconvinced": 5938,
      "ued": 5939,
      "Ġdoll": 5940,
      "Ġcouv": 5941,
      "isch": 5942,
      "Ġremember": 5943,
      "Ġvir": 5944,
      "ĠEast": 5945,
      "Ġsepar": 5946,
      "tically": 5947,
      "Ġprevention": 5948,
      "ĠRules": 5949,
      "ĠphÃ©nom": 5950,
      "Ġadditi": 5951,
      "Ġsusc": 5952,
      "ĠadoptÃ©e": 5953,
      "Ġrecycl": 5954,
      "kin": 5955,
      "vier": 5956,
      "Ġbad": 5957,
      "Ġforget": 5958,
      "Ġrac": 5959,
      "oindre": 5960,
      "ĠDu": 5961,
      "Ġgenuine": 5962,
      "Ġcapable": 5963,
      "Ġwishes": 5964,
      "ĠsociÃ©tÃ©s": 5965,
      "Ġanimaux": 5966,
      "ĠreconnaÃ®tre": 5967,
      "Ġlogique": 5968,
      "Ġconservation": 5969,
      "ha": 5970,
      "vitÃ©": 5971,
      "zed": 5972,
      "Ġspect": 5973,
      "Ġeaux": 5974,
      "arde": 5975,
      "abli": 5976,
      "iez": 5977,
      "ored": 5978,
      "ĠprÃ©t": 5979,
      "ĠAud": 5980,
      "Ġcontain": 5981,
      "Ġaccompl": 5982,
      "Ġfinancing": 5983,
      "Ġexamine": 5984,
      "Ġexplic": 5985,
      "Ġsujets": 5986,
      "ormais": 5987,
      "Ġhappened": 5988,
      "Ġcondamn": 5989,
      "anu": 5990,
      "Ġdeg": 5991,
      "Ġforth": 5992,
      "Ġanci": 5993,
      "aborer": 5994,
      "acks": 5995,
      "umiÃ¨re": 5996,
      "ĠtraitÃ©s": 5997,
      "ĠBos": 5998,
      "Ġautrich": 5999,
      "Ġrecours": 6000,
      "Ġdecide": 6001,
      "Ġinfrastructures": 6002,
      "tiquet": 6003,
      "Indeed": 6004,
      "ĠTibet": 6005,
      "lus": 6006,
      "ened": 6007,
      "Ġdevenir": 6008,
      "Third": 6009,
      "Ġ100": 6010,
      "ĠRÃ©": 6011,
      "Ġ60": 6012,
      "Ġintroduce": 6013,
      "ĠspÃ©cial": 6014,
      "Ġatteint": 6015,
      "Ġpartnership": 6016,
      "Ġchalleng": 6017,
      "etheless": 6018,
      "AL": 6019,
      "Accord": 6020,
      "ma": 6021,
      "vic": 6022,
      "anium": 6023,
      "Ġunion": 6024,
      "Ġformes": 6025,
      "ĠIGC": 6026,
      "Ġshi": 6027,
      "Ġappreci": 6028,
      "Ġdiscut": 6029,
      "ĠOb": 6030,
      "Ġcentres": 6031,
      "Ġcaus": 6032,
      "Ġexistence": 6033,
      "ĠTurkish": 6034,
      "Ġinstance": 6035,
      "Ġenvironnementale": 6036,
      "Ġinfrastructure": 6037,
      "ĠpÃ©t": 6038,
      "unch": 6039,
      "ĠCy": 6040,
      "ĠdÃ©r": 6041,
      "Ġcontains": 6042,
      "onner": 6043,
      "Ã©nophob": 6044,
      "Ġ1995": 6045,
      "Ġ37": 6046,
      "Ġrecev": 6047,
      "Ġfacilit": 6048,
      "Ġsignaler": 6049,
      "Ġadapt": 6050,
      "ĠxÃ©nophob": 6051,
      "ĠimmÃ©diate": 6052,
      "Ġimplications": 6053,
      "ĠvÃ©hicules": 6054,
      "body": 6055,
      "iency": 6056,
      "Ġgives": 6057,
      "Ġchangements": 6058,
      "Ġexercise": 6059,
      "ĠÃ©tablir": 6060,
      "Ainsi": 6061,
      "Nevertheless": 6062,
      "laud": 6063,
      "enophob": 6064,
      "rak": 6065,
      "Ġdise": 6066,
      "Ġwilling": 6067,
      "Ġgranted": 6068,
      "cisive": 6069,
      "Ġsouci": 6070,
      "ĠNG": 6071,
      "Ġprogramm": 6072,
      "Ġinitial": 6073,
      "ĠrevÃª": 6074,
      "ĠrÃ©aliser": 6075,
      "Ġrecognised": 6076,
      "Ġoriginal": 6077,
      "Ġsubsidiarity": 6078,
      "Ġconference": 6079,
      "Euro": 6080,
      "isÃ©": 6081,
      "Ġvite": 6082,
      "Ġchamp": 6083,
      "ĠprÃ©par": 6084,
      "Ġseraient": 6085,
      "Ġcovered": 6086,
      "autor": 6087,
      "Ġassist": 6088,
      "Ġperfect": 6089,
      "appr": 6090,
      "Ġprofond": 6091,
      "ducing": 6092,
      "Ġarrive": 6093,
      "Ġlimites": 6094,
      "ĠcoÃ»t": 6095,
      "Ġappear": 6096,
      "Ġincreasingly": 6097,
      "Ġlargement": 6098,
      "ĠsubsidiaritÃ©": 6099,
      "Ġundertaking": 6100,
      "ĠAmerican": 6101,
      "NS": 6102,
      "inn": 6103,
      "Ġvais": 6104,
      "ĠPublic": 6105,
      "ĠplÃ©n": 6106,
      "Ġchair": 6107,
      "Ġactual": 6108,
      "ĠInd": 6109,
      "Ġmontant": 6110,
      "Ġintroduced": 6111,
      "Ġsubstance": 6112,
      "ĠcompÃ©titivitÃ©": 6113,
      "Ġsafeguard": 6114,
      "Autriche": 6115,
      "Last": 6116,
      "intes": 6117,
      "Ġcul": 6118,
      "ĠPays": 6119,
      "rÃ©g": 6120,
      "ĠSomm": 6121,
      "Ġconsul": 6122,
      "Ġaccorder": 6123,
      "Ġnoise": 6124,
      "ailed": 6125,
      "Ġentreprise": 6126,
      "ĠrÃ©flÃ©ch": 6127,
      "Ġestablishment": 6128,
      "Ġcalling": 6129,
      "Ġrecommendation": 6130,
      "Ġcriticism": 6131,
      "Ġlanguage": 6132,
      "Moreover": 6133,
      "cin": 6134,
      "ĠtÃ©m": 6135,
      "Ġdram": 6136,
      "esprit": 6137,
      "ino": 6138,
      "ĠfÃ©d": 6139,
      "alco": 6140,
      "Ġreducing": 6141,
      "emp": 6142,
      "pÃ©ens": 6143,
      "ĠmatÃ©ri": 6144,
      "Ġrestru": 6145,
      "Ġlaws": 6146,
      "Ġfamille": 6147,
      "Ġgradu": 6148,
      "Ġoffice": 6149,
      "ĠInternational": 6150,
      "ĠdÃ©sormais": 6151,
      "ĠmÃ©dias": 6152,
      "Ġimmediately": 6153,
      "cro": 6154,
      "yons": 6155,
      "tier": 6156,
      "Ġburd": 6157,
      "Ġretr": 6158,
      "osed": 6159,
      "ueill": 6160,
      "Ġstade": 6161,
      "Ġoperation": 6162,
      "Ġprovides": 6163,
      "Ġprochaines": 6164,
      "Ġdefinition": 6165,
      "Ġscientifiques": 6166,
      "Ġanalyse": 6167,
      "Ġearly": 6168,
      "Ġchocolate": 6169,
      "Ġmarchandises": 6170,
      "Selon": 6171,
      "ah": 6172,
      "xim": 6173,
      "onom": 6174,
      "Ġaient": 6175,
      "Ġpack": 6176,
      "reement": 6177,
      "Ġthous": 6178,
      "Ġbomb": 6179,
      "Ġlaid": 6180,
      "Ġisol": 6181,
      "Ġaudiovis": 6182,
      "ĠmatiÃ¨res": 6183,
      "Ġexac": 6184,
      "ieving": 6185,
      "Ġsoir": 6186,
      "Ġimporte": 6187,
      "Ġaband": 6188,
      "ĠÃ©tabli": 6189,
      "Ġminutes": 6190,
      "Ġdebt": 6191,
      "ĠWTO": 6192,
      "Ġscand": 6193,
      "Ġressor": 6194,
      "Ã¡": 6195,
      "Ġloi": 6196,
      "Ġwants": 6197,
      "Ġwhom": 6198,
      "lying": 6199,
      "Ġasking": 6200,
      "Ġcomprehen": 6201,
      "ocks": 6202,
      "Ġmars": 6203,
      "bilities": 6204,
      "cedure": 6205,
      "ĠChamber": 6206,
      "Ġlimiter": 6207,
      "Ġconclude": 6208,
      "Ġappliquer": 6209,
      "Ġsatisfaction": 6210,
      "ĠMarch": 6211,
      "):": 6212,
      "Ġtest": 6213,
      "Ġcertes": 6214,
      "Ġsays": 6215,
      "Ġferm": 6216,
      "Ġfasse": 6217,
      "Ġquanti": 6218,
      "Ġunable": 6219,
      "Ġbecoming": 6220,
      "ighbour": 6221,
      "Ġaccident": 6222,
      "ĠsiÃ¨": 6223,
      "Ġadopting": 6224,
      "Ġperform": 6225,
      "called": 6226,
      "ĠKing": 6227,
      "Ġsatisfait": 6228,
      "Ġcalend": 6229,
      "attle": 6230,
      "Ġsuggest": 6231,
      "Ġreconnaissance": 6232,
      "Ġtasks": 6233,
      "Ġpertin": 6234,
      "uille": 6235,
      "alates": 6236,
      "ĠÃ©mis": 6237,
      "Ġneighbour": 6238,
      "Ġadopte": 6239,
      "Ġesprit": 6240,
      "Ġbeings": 6241,
      "ĠONG": 6242,
      "ĠdÃ©fi": 6243,
      "ĠProcedure": 6244,
      ")]": 6245,
      "oni": 6246,
      "Ġpun": 6247,
      "quant": 6248,
      "ator": 6249,
      "Ġbonnes": 6250,
      "aste": 6251,
      "Ġhop": 6252,
      "Ġintervenir": 6253,
      "Ġclas": 6254,
      "Ġhumain": 6255,
      "acter": 6256,
      "publique": 6257,
      "ruption": 6258,
      "Ġletter": 6259,
      "Ġremarque": 6260,
      "Ġscientifique": 6261,
      "Ġthought": 6262,
      "ĠÃ©trangÃ¨res": 6263,
      "Amsterdam": 6264,
      "Ġhyp": 6265,
      "usse": 6266,
      "Ġprogressive": 6267,
      "Ġterrain": 6268,
      "Ġsupplement": 6269,
      "Ġabsence": 6270,
      "ĠdÃ©finir": 6271,
      "Ġideas": 6272,
      "Ġoperations": 6273,
      "Ġenvisage": 6274,
      "Ġsurveill": 6275,
      "Ġadequate": 6276,
      "ĠAuditors": 6277,
      "ĠSommet": 6278,
      "Ġvul": 6279,
      "Ġfab": 6280,
      "ĠrÃ©alisation": 6281,
      "ĠNorth": 6282,
      "ĠdÃ©mar": 6283,
      "Ġattendre": 6284,
      "Ġfraude": 6285,
      "Ġhigher": 6286,
      "Ġconsommation": 6287,
      "ĠdÃ©lais": 6288,
      "Ġcompany": 6289,
      "Ġbuilding": 6290,
      "ĠDemocrats": 6291,
      "AR": 6292,
      "Trois": 6293,
      "hold": 6294,
      "lines": 6295,
      "pro": 6296,
      "istÃ©": 6297,
      "organ": 6298,
      "Ġevidence": 6299,
      "Ġoctro": 6300,
      "igu": 6301,
      "active": 6302,
      "Ġ26": 6303,
      "triment": 6304,
      "Ġmenace": 6305,
      "Ġdemandons": 6306,
      "aken": 6307,
      "Ġsouhaitons": 6308,
      "Ġlocales": 6309,
      "ĠnÃ©gociation": 6310,
      "Ġexclusion": 6311,
      "Ġparlons": 6312,
      "Ġdrug": 6313,
      "Ġenormous": 6314,
      "alcool": 6315,
      "ton": 6316,
      "ros": 6317,
      "Ġrej": 6318,
      "Ġvendre": 6319,
      "verbal": 6320,
      "Unfortunately": 6321,
      "question": 6322,
      "Ġobjet": 6323,
      "Ġtransit": 6324,
      "Ġrappro": 6325,
      "Ġcloser": 6326,
      "Ġglobalisation": 6327,
      "Ġlettre": 6328,
      "tissement": 6329,
      "ĠSecurity": 6330,
      "After": 6331,
      "ĠHealth": 6332,
      "Ġextraordin": 6333,
      "Ġauxquels": 6334,
      "Ġdescrib": 6335,
      "Ġstip": 6336,
      "oor": 6337,
      "tiveness": 6338,
      "Ġabol": 6339,
      "Ġinformed": 6340,
      "amÃ©liorer": 6341,
      "ĠRegulation": 6342,
      "Ġambitious": 6343,
      "ĠÃ©quilib": 6344,
      "Thirdly": 6345,
      "ĠRÃ©publique": 6346,
      "ĠplÃ©niÃ¨re": 6347,
      "harm": 6348,
      "to": 6349,
      "Ġwat": 6350,
      "chement": 6351,
      "uls": 6352,
      "ular": 6353,
      "ignement": 6354,
      "Ġstabil": 6355,
      "aison": 6356,
      "ĠNiels": 6357,
      "Ġoptim": 6358,
      "ĠactivitÃ©": 6359,
      "Ġsouth": 6360,
      "Ġmodifier": 6361,
      "Ġsteps": 6362,
      "COS": 6363,
      "Ġweeks": 6364,
      "Ġlabelling": 6365,
      "Ġintentions": 6366,
      "NU": 6367,
      "vere": 6368,
      "Ġcompagn": 6369,
      "prise": 6370,
      "Ġviens": 6371,
      "Ġinvolve": 6372,
      "ĠUK": 6373,
      "Ġindustries": 6374,
      "Ġpensions": 6375,
      "Ġbenefits": 6376,
      "Ġcharacter": 6377,
      "ornograph": 6378,
      "ozamb": 6379,
      "cas": 6380,
      "Ġmult": 6381,
      "Ġfera": 6382,
      "Ġquan": 6383,
      "unitÃ©": 6384,
      "Ãªtes": 6385,
      "ouverture": 6386,
      "Ġhumanitaire": 6387,
      "Ġfondamentales": 6388,
      "Ġcollective": 6389,
      "Ġpostp": 6390,
      "Ġrecommendations": 6391,
      "Ġattempt": 6392,
      "Ġpermanent": 6393,
      "ĠrÃ©flexion": 6394,
      "According": 6395,
      "ĠKingdom": 6396,
      "iop": 6397,
      "enary": 6398,
      "Ġsend": 6399,
      "anvier": 6400,
      "Ġhom": 6401,
      "endum": 6402,
      "Ġcommerci": 6403,
      "thiop": 6404,
      "Ġpolitici": 6405,
      "Ġmember": 6406,
      "ĠJanu": 6407,
      "Ġmontrer": 6408,
      "Ġtotale": 6409,
      "Ġreasonable": 6410,
      "ĠespÃ¨re": 6411,
      "ĠrÃ©alisÃ©": 6412,
      "Ã¶r": 6413,
      "Ġsemaines": 6414,
      "Ġsensitive": 6415,
      "Ġrecommandation": 6416,
      "Ġchocolat": 6417,
      "Ġmethods": 6418,
      "Ġethnic": 6419,
      "Ġeasy": 6420,
      "ĠJanuary": 6421,
      "Ġsk": 6422,
      "undi": 6423,
      "associ": 6424,
      "Ã¨vement": 6425,
      "Ġjanvier": 6426,
      "Ġatten": 6427,
      "Ġserve": 6428,
      "Ġentam": 6429,
      "Ġaffairs": 6430,
      "Ġsuffit": 6431,
      "ĠSta": 6432,
      "Ġcredi": 6433,
      "Ġsusp": 6434,
      "Ġassociation": 6435,
      "Ġaddressed": 6436,
      "No": 6437,
      "fond": 6438,
      "hon": 6439,
      "iendra": 6440,
      "Ã«": 6441,
      "inves": 6442,
      "sized": 6443,
      "Ġenfor": 6444,
      "Ġplenary": 6445,
      "Ġprud": 6446,
      "tenir": 6447,
      "Ġfaites": 6448,
      "Ceci": 6449,
      "Ġfamil": 6450,
      "intervention": 6451,
      "ĠlÃ©gislative": 6452,
      "Ġprobablement": 6453,
      "Ġlour": 6454,
      "eding": 6455,
      "ĠMil": 6456,
      "Ġconcent": 6457,
      "Ġavaient": 6458,
      "tity": 6459,
      "Ġminister": 6460,
      "Ġresponsibilities": 6461,
      "ĠdÃ©cider": 6462,
      "Ġstatements": 6463,
      "atically": 6464,
      "Ġimplique": 6465,
      "ĠcaractÃ©r": 6466,
      "ĠPeople": 6467,
      "ĠentiÃ¨rement": 6468,
      "Ġvehicles": 6469,
      "Subject": 6470,
      "Ġrestruct": 6471,
      "DÃ¨s": 6472,
      "Ġpal": 6473,
      "isÃ©es": 6474,
      "anie": 6475,
      "omÃ©": 6476,
      "ases": 6477,
      "ĠÃ©m": 6478,
      "esses": 6479,
      "Ġpollu": 6480,
      "Ġinsister": 6481,
      "Ġcommunities": 6482,
      "Ġremet": 6483,
      "Ġterminer": 6484,
      "affirm": 6485,
      "ĠItaly": 6486,
      "Ġpostal": 6487,
      "Ġemphasise": 6488,
      "Ġxenophob": 6489,
      "Ġplanning": 6490,
      "Ġcomprehensive": 6491,
      "ony": 6492,
      "este": 6493,
      "ility": 6494,
      "ĠMozamb": 6495,
      "Ġattrib": 6496,
      "Ġavancer": 6497,
      "ceptions": 6498,
      "Ġconfusion": 6499,
      "Ġdiscours": 6500,
      "Pourquoi": 6501,
      "Ġocc": 6502,
      "Ġexplain": 6503,
      "Ġimprovement": 6504,
      "Ġferme": 6505,
      "Ġmodifications": 6506,
      "ĠminoritÃ©s": 6507,
      "ĠÃ©quilibre": 6508,
      "ĠSpain": 6509,
      "Objet": 6510,
      "Commissioner": 6511,
      "ball": 6512,
      "hib": 6513,
      "ipe": 6514,
      "Ġstim": 6515,
      "Ġquinze": 6516,
      "Ġdest": 6517,
      "ows": 6518,
      "ĠAss": 6519,
      "ĠconsidÃ©rer": 6520,
      "Ġvisit": 6521,
      "Why": 6522,
      "engagement": 6523,
      "Ġconstate": 6524,
      "Ġflag": 6525,
      "ĠÃ©cologique": 6526,
      "Ġsmo": 6527,
      "010": 6528,
      "ĠAfrique": 6529,
      "Ġstrategic": 6530,
      "ĠlÃ©gislatif": 6531,
      "Ġassociations": 6532,
      "Ġestimons": 6533,
      "Ġsummit": 6534,
      "Ġmonopol": 6535,
      "gue": 6536,
      "nÃ©e": 6537,
      "Ġtort": 6538,
      "Ġtient": 6539,
      "Ã©anmoins": 6540,
      "titions": 6541,
      "agers": 6542,
      "Ġheart": 6543,
      "oday": 6544,
      "Ġoutcome": 6545,
      "Ġdisposi": 6546,
      "ĠcrÃ©di": 6547,
      "Ġimproved": 6548,
      "Ġcompetitiveness": 6549,
      "Ġrailway": 6550,
      "ĠtÃ©lÃ©vision": 6551,
      "effe": 6552,
      "ĠNielson": 6553,
      "bit": 6554,
      "Ġdig": 6555,
      "Ġsac": 6556,
      "Ġuns": 6557,
      "ague": 6558,
      "Ġdevait": 6559,
      "Ġ27": 6560,
      "ciliation": 6561,
      "Ġincin": 6562,
      "Ġsupporting": 6563,
      "ĠintÃ©gration": 6564,
      "ĠLegal": 6565,
      "ĠcohÃ©r": 6566,
      "Ġconstituer": 6567,
      "ĠbÃ©nÃ©ficier": 6568,
      "Ġpromoting": 6569,
      "cot": 6570,
      "Ġtests": 6571,
      "inational": 6572,
      "orient": 6573,
      "Ġconven": 6574,
      "activitÃ©": 6575,
      "Ġrelationship": 6576,
      "ĠdiversitÃ©": 6577,
      "Ġfigures": 6578,
      "Ġcarefully": 6579,
      "ĠAmerica": 6580,
      "Ġmandat": 6581,
      "Ġpopulaire": 6582,
      "Ġtirer": 6583,
      "quis": 6584,
      "Ġmist": 6585,
      "elt": 6586,
      "Ã¨nes": 6587,
      "rika": 6588,
      "tÃ©es": 6589,
      "Ġcars": 6590,
      "Ġ31": 6591,
      "COD": 6592,
      "amÃ©lioration": 6593,
      "Ġcapitaux": 6594,
      "dac": 6595,
      "isÃ©s": 6596,
      "Ġrange": 6597,
      "chÃ©": 6598,
      "ĠrÃ©action": 6599,
      "ief": 6600,
      "Ġstri": 6601,
      "Ġconcernent": 6602,
      "ĠrÃ©solutions": 6603,
      "ologiques": 6604,
      "Ġachieving": 6605,
      "ĠefficacitÃ©": 6606,
      "espace": 6607,
      "Ġhappy": 6608,
      "Ġreduced": 6609,
      "Ã©laboration": 6610,
      "ĠintÃ©rieures": 6611,
      "Ġcontinuing": 6612,
      "Ġdelighted": 6613,
      "Ġcampagne": 6614,
      "Ġrecommandations": 6615,
      "spagne": 6616,
      "Ġelements": 6617,
      "Ã©quilibre": 6618,
      "oie": 6619,
      "Ġmouve": 6620,
      "Ġge": 6621,
      "lique": 6622,
      "angl": 6623,
      "vires": 6624,
      "Ġexaminer": 6625,
      "Ġlimits": 6626,
      "head": 6627,
      "Ġidenti": 6628,
      "Ġcritical": 6629,
      "Ġdistance": 6630,
      "ĠGreek": 6631,
      "ĠmÃ©thode": 6632,
      "Ġflexibility": 6633,
      "ĠWhite": 6634,
      "Ġwonder": 6635,
      "harmon": 6636,
      "Ġmultinational": 6637,
      "crit": 6638,
      "Ġsw": 6639,
      "ederal": 6640,
      "Ġbeef": 6641,
      "ĠMc": 6642,
      "Ġallem": 6643,
      "Ġchap": 6644,
      "Ġliability": 6645,
      "ĠFisch": 6646,
      "Ġgoal": 6647,
      "cheme": 6648,
      "Ġdemandes": 6649,
      "Ġspor": 6650,
      "Ġinteresting": 6651,
      "ĠidÃ©es": 6652,
      "comes": 6653,
      "Ġconduct": 6654,
      "Ġflexible": 6655,
      "Ġadvantage": 6656,
      "Ġsurveillance": 6657,
      "ĠFischler": 6658,
      "grer": 6659,
      "Ġvari": 6660,
      "Ġfortement": 6661,
      "Ġcompos": 6662,
      "Ġlongue": 6663,
      "ĠrÃ¨glements": 6664,
      "Ġextend": 6665,
      "Ġtransparent": 6666,
      "Ġrepresentative": 6667,
      "Ġ90": 6668,
      "Ġencourager": 6669,
      "ĠMinutes": 6670,
      "ĠamÃ©lioration": 6671,
      "Ġterritory": 6672,
      "Ġinternationaux": 6673,
      "ĠAnd": 6674,
      "Ġextension": 6675,
      "Ġdirige": 6676,
      "Ġoublier": 6677,
      "ĠCIG": 6678,
      "Ġparfaitement": 6679,
      "IFE": 6680,
      "Ġfamilies": 6681,
      "ĠmÃ©diterranÃ©": 6682,
      "Ġbov": 6683,
      "Ġrein": 6684,
      "Ġfaible": 6685,
      "ĠEM": 6686,
      "Ġpersons": 6687,
      "Ġatta": 6688,
      "Ġimmigrants": 6689,
      "oncÃ©": 6690,
      "Ġchemin": 6691,
      "Comment": 6692,
      "Ġarrangements": 6693,
      "Ġburden": 6694,
      "Even": 6695,
      "border": 6696,
      "ior": 6697,
      "octro": 6698,
      "Ġcame": 6699,
      "orum": 6700,
      "Ġinh": 6701,
      "ĠCentre": 6702,
      "Ġgain": 6703,
      "ĠÃ©larg": 6704,
      "ditions": 6705,
      "ĠAutriche": 6706,
      "Ġadh": 6707,
      "exÃ©cution": 6708,
      "Ġrappelle": 6709,
      "inding": 6710,
      "Ġprincipal": 6711,
      "Ġexplo": 6712,
      "Ġrepresents": 6713,
      "Ġprison": 6714,
      "Ġevaluation": 6715,
      "Ġheureux": 6716,
      "anisms": 6717,
      "Ġnavires": 6718,
      "ĠÃ©vÃ©nements": 6719,
      "ĠNGOs": 6720,
      "AprÃ¨s": 6721,
      "Gen": 6722,
      "NÃ©anmoins": 6723,
      "roy": 6724,
      "Ġec": 6725,
      "ĠforÃª": 6726,
      "Ġservir": 6727,
      "ĠBl": 6728,
      "Ġpubl": 6729,
      "Ġindire": 6730,
      "Ġsigned": 6731,
      "Ġlimite": 6732,
      "Ġdurant": 6733,
      "ĠFrid": 6734,
      "ĠbudgÃ©taires": 6735,
      "Ġaccompli": 6736,
      "Ġjudiciaire": 6737,
      "Ġcompensation": 6738,
      "ĠmÃ©canis": 6739,
      "Ġrejected": 6740,
      "Ġchallenges": 6741,
      "Non": 6742,
      "Pro": 6743,
      "Today": 6744,
      "unt": 6745,
      "cel": 6746,
      "rage": 6747,
      "Ġenj": 6748,
      "ĠTrans": 6749,
      "Ġfactor": 6750,
      "asses": 6751,
      "Ġcontradiction": 6752,
      "landais": 6753,
      "ĠconnaÃ®t": 6754,
      "Ġentitled": 6755,
      "Ã«l": 6756,
      "ĠMozambique": 6757,
      "table": 6758,
      "uelles": 6759,
      "Ã³": 6760,
      "Ġdop": 6761,
      "Ġpied": 6762,
      "Ġproc": 6763,
      "aca": 6764,
      "Ġfins": 6765,
      "Ġsoutiens": 6766,
      "Ġintends": 6767,
      "tisation": 6768,
      "tember": 6769,
      "Ġsucceed": 6770,
      "Ġarriver": 6771,
      "Although": 6772,
      "ĠECB": 6773,
      "mark": 6774,
      "Ġmechanisms": 6775,
      "Ġconcrete": 6776,
      "ĠmÃ©canismes": 6777,
      "Ġlines": 6778,
      "ores": 6779,
      "orie": 6780,
      "agu": 6781,
      "ĠSy": 6782,
      "oreign": 6783,
      "Ġmanaged": 6784,
      "Ġoption": 6785,
      "ittees": 6786,
      "Ġspent": 6787,
      "Ġrevient": 6788,
      "Ġsouligne": 6789,
      "Ġmissions": 6790,
      "Ġcalls": 6791,
      "ĠECHO": 6792,
      "ĠempÃªcher": 6793,
      "Ġgenerally": 6794,
      "examen": 6795,
      "Ġtribun": 6796,
      "Ġchiffres": 6797,
      "OTAN": 6798,
      "exploit": 6799,
      "Ġnegative": 6800,
      "ĠsiÃ¨cle": 6801,
      "By": 6802,
      "EA": 6803,
      "dit": 6804,
      "mid": 6805,
      "nÃ©s": 6806,
      "Ġcust": 6807,
      "Ġscheme": 6808,
      "anche": 6809,
      "ara": 6810,
      "atur": 6811,
      "sification": 6812,
      "Ġsep": 6813,
      "trÃ¶": 6814,
      "Ġradic": 6815,
      "auche": 6816,
      "Ġseries": 6817,
      "tification": 6818,
      "Ġincome": 6819,
      "Ġapproval": 6820,
      "Ġcontraign": 6821,
      "Ġaurons": 6822,
      "Ġefficaces": 6823,
      "Ġfloor": 6824,
      "ĠMadam": 6825,
      "ĠTraitÃ©s": 6826,
      "Ġrecognition": 6827,
      "Ġvigil": 6828,
      "Ġhistory": 6829,
      "Ġlangues": 6830,
      "Ġcomplexe": 6831,
      "ĠRussie": 6832,
      "Ġbilat": 6833,
      "tiquetage": 6834,
      "trÃ¶m": 6835,
      "ril": 6836,
      "Ġaj": 6837,
      "Ġmoindre": 6838,
      "oples": 6839,
      "Ġcomit": 6840,
      "ateful": 6841,
      "embly": 6842,
      "Ġpeoples": 6843,
      "tices": 6844,
      "Ġliv": 6845,
      "Ġmotiv": 6846,
      "prus": 6847,
      "Ġrelated": 6848,
      "Ġargent": 6849,
      "alistic": 6850,
      "ĠdiffÃ©rence": 6851,
      "Ġdifferences": 6852,
      "Ġshows": 6853,
      "Ġmodernisation": 6854,
      "Ġargument": 6855,
      "encontre": 6856,
      "ĠapprouvÃ©": 6857,
      "Ġdebates": 6858,
      "Ġcalendrier": 6859,
      "AS": 6860,
      "Pres": 6861,
      "ees": 6862,
      "hors": 6863,
      "oted": 6864,
      "Ġtold": 6865,
      "ĠparaÃ®t": 6866,
      "absence": 6867,
      "Ġstu": 6868,
      "ĠForeign": 6869,
      "Ġvoire": 6870,
      "Ġannoun": 6871,
      "ĠVan": 6872,
      "Ġprincipalement": 6873,
      "Ġporter": 6874,
      "Ġmeilleures": 6875,
      "primer": 6876,
      "Ġdiverses": 6877,
      "Ġdetail": 6878,
      "ĠdÃ©taill": 6879,
      "Ġstarting": 6880,
      "Ġattemp": 6881,
      "aim": 6882,
      "matique": 6883,
      "tiles": 6884,
      "Ġweap": 6885,
      "aujourd": 6886,
      "Ġotherwise": 6887,
      "ĠÃ©vidence": 6888,
      "Ġenvironnementales": 6889,
      "Ġespagn": 6890,
      "Ġguarantees": 6891,
      "ĠexprimÃ©": 6892,
      "ĠAfrican": 6893,
      "Ġcombien": 6894,
      "Ã©tablissement": 6895,
      "Ġraisonnable": 6896,
      "Ġdegree": 6897,
      "04": 6898,
      "AT": 6899,
      "Elles": 6900,
      "dis": 6901,
      "vÃ©es": 6902,
      "Ġdomm": 6903,
      "atoires": 6904,
      "ficit": 6905,
      "Ġcontract": 6906,
      "Ġefficiency": 6907,
      "Ġcompetitive": 6908,
      "Ġpuissions": 6909,
      "Ġaims": 6910,
      "Ġdette": 6911,
      "Ġregrette": 6912,
      "ĠprÃ©cÃ©dent": 6913,
      "Ġcoherence": 6914,
      "Ġuniform": 6915,
      "Ġfootball": 6916,
      "Ġpaper": 6917,
      "ĠgÃ©": 6918,
      "ĠdÃ©part": 6919,
      "Ġacte": 6920,
      "Ġgrateful": 6921,
      "Ġarticles": 6922,
      "Ġbelong": 6923,
      "Ġcentury": 6924,
      "Ġpouvoirs": 6925,
      "Ġincludes": 6926,
      "Ġpayer": 6927,
      "Ġjudg": 6928,
      "Ġoperators": 6929,
      "Ġminorities": 6930,
      "ĠprÃ©occupation": 6931,
      "Ġclause": 6932,
      "Ġtelevision": 6933,
      "Ġcirconst": 6934,
      "Ã¤": 6935,
      "ene": 6936,
      "reedom": 6937,
      "Ġrevenus": 6938,
      "Ġgave": 6939,
      "anding": 6940,
      "acte": 6941,
      "ĠliÃ©es": 6942,
      "Ġtravel": 6943,
      "ĠapprÃ©ci": 6944,
      "ĠBCE": 6945,
      "Ġmilliers": 6946,
      "Ġputting": 6947,
      "ĠreprÃ©sentent": 6948,
      "ĠÃ©labor": 6949,
      "Ġcombating": 6950,
      "Ġcomplain": 6951,
      "Ġenvisag": 6952,
      "Ġbalanced": 6953,
      "ĠmÃ©thodes": 6954,
      "ĠrÃ©dig": 6955,
      "ĠCyprus": 6956,
      "Ġpan": 6957,
      "Ġpill": 6958,
      "Ġcer": 6959,
      "Ġcam": 6960,
      "Ġcult": 6961,
      "rai": 6962,
      "Ġviv": 6963,
      "onses": 6964,
      "uler": 6965,
      "Ġmaje": 6966,
      "ional": 6967,
      "ĠrÃ©t": 6968,
      "Ġoral": 6969,
      "Ġ29": 6970,
      "Ġsymp": 6971,
      "Ġsatisfais": 6972,
      "servatoire": 6973,
      "Ġdiversity": 6974,
      "Ġdetailed": 6975,
      "Ġcharges": 6976,
      "ĠSpan": 6977,
      "Ġsubstantial": 6978,
      "Many": 6979,
      "eness": 6980,
      "anism": 6981,
      "Ġinu": 6982,
      "alle": 6983,
      "urent": 6984,
      "Ġrevenir": 6985,
      "Ġprol": 6986,
      "raft": 6987,
      "estation": 6988,
      "ĠdÃ©li": 6989,
      "ureau": 6990,
      "ĠSep": 6991,
      "Ġjeu": 6992,
      "Ġreprodu": 6993,
      "Ġinterm": 6994,
      "Ġregime": 6995,
      "Ġprofits": 6996,
      "Ġchanger": 6997,
      "Ġvalid": 6998,
      "Ġsports": 6999,
      "Ġsecure": 7000,
      "Ġappeal": 7001,
      "Ġpatent": 7002,
      "ĠRussia": 7003,
      "ĠprÃ©cise": 7004,
      "ĠÃ©voquÃ©": 7005,
      "DI": 7006,
      "Ã©re": 7007,
      "Ġinad": 7008,
      "Ġba": 7009,
      "Ġbound": 7010,
      "Ġvive": 7011,
      "ots": 7012,
      "Ġproposing": 7013,
      "Ġmenac": 7014,
      "Ġsuppose": 7015,
      "Ġinvolves": 7016,
      "Ġiden": 7017,
      "Ġsoutenons": 7018,
      "Ġdefined": 7019,
      "ĠBarn": 7020,
      "Ġmots": 7021,
      "ĠprÃªts": 7022,
      "iddle": 7023,
      "blement": 7024,
      "echn": 7025,
      "mon": 7026,
      "Ã¼": 7027,
      "enf": 7028,
      "Ġlanc": 7029,
      "ĠmÃ©d": 7030,
      "ĠbÃ¢": 7031,
      "ĠCor": 7032,
      "Ã¨lement": 7033,
      "ĠrÃ©ussi": 7034,
      "itis": 7035,
      "Ġstocks": 7036,
      "Ġproposes": 7037,
      "Ġincomp": 7038,
      "Ġsupports": 7039,
      "tembre": 7040,
      "ĠorganisÃ©e": 7041,
      "ĠdÃ©fis": 7042,
      "Ġgaranties": 7043,
      "Ġequality": 7044,
      "Ġmoyennes": 7045,
      "Ġressortiss": 7046,
      "Ġenjoy": 7047,
      "ĠSeptember": 7048,
      "mer": 7049,
      "nalitÃ©": 7050,
      "aries": 7051,
      "aluer": 7052,
      "ilst": 7053,
      "Ġreaction": 7054,
      "Ġpourrions": 7055,
      "opoul": 7056,
      "Ġchances": 7057,
      "anced": 7058,
      "Ġstock": 7059,
      "blin": 7060,
      "ĠLIFE": 7061,
      "Ġbases": 7062,
      "ĠOLAF": 7063,
      "Ġessentiels": 7064,
      "Ġcomprends": 7065,
      "Ġmeetings": 7066,
      "Ġofficial": 7067,
      "informations": 7068,
      "Ġpoursuiv": 7069,
      "Ġdefend": 7070,
      "Ġsecret": 7071,
      "Ġhappening": 7072,
      "ctronic": 7073,
      "Ġdangereux": 7074,
      "Ġintegrated": 7075,
      "ĠGreens": 7076,
      "Ġdesigned": 7077,
      "ĠLiberal": 7078,
      "Ġforthcoming": 7079,
      "Ġseptembre": 7080,
      "Every": 7081,
      "wing": 7082,
      "Ġlois": 7083,
      "Ġlost": 7084,
      "Ã©tÃ©": 7085,
      "isÃ©e": 7086,
      "Ġwit": 7087,
      "pril": 7088,
      "Ġsoutient": 7089,
      "Ġsubventions": 7090,
      "Ġannuel": 7091,
      "ĠrÃ©ponses": 7092,
      "Ã©riques": 7093,
      "Ġportant": 7094,
      "ĠillÃ©g": 7095,
      "ĠtÃ©lÃ©communications": 7096,
      "Ġnaturally": 7097,
      "Ġprecaution": 7098,
      "Ġtackle": 7099,
      "Ġpackage": 7100,
      "21": 7101,
      "aprÃ¨s": 7102,
      "once": 7103,
      "ĠlumiÃ¨re": 7104,
      "Ġcy": 7105,
      "Ġciter": 7106,
      "Ġmun": 7107,
      "Ġreques": 7108,
      "Ġones": 7109,
      "ĠMac": 7110,
      "ĠMex": 7111,
      "ĠrÃ©elle": 7112,
      "accep": 7113,
      "ĠApril": 7114,
      "issaires": 7115,
      "Ġworked": 7116,
      "Ġprofiter": 7117,
      "Ġessentielle": 7118,
      "Ġphy": 7119,
      "Ġvouloir": 7120,
      "Ġobligatoire": 7121,
      "Ġrealise": 7122,
      "ĠAlban": 7123,
      "Ġadvoc": 7124,
      "Ġpurposes": 7125,
      "ĠprÃ©caution": 7126,
      "Ġmassive": 7127,
      "Ġattirer": 7128,
      "ĠBosn": 7129,
      "honorable": 7130,
      "Ġrequested": 7131,
      "hr": 7132,
      "rime": 7133,
      "Ġcess": 7134,
      "ĠfrÃ©": 7135,
      "Ġnorth": 7136,
      "cev": 7137,
      "Ġforced": 7138,
      "emark": 7139,
      "atever": 7140,
      "Ġability": 7141,
      "ĠconcernÃ©es": 7142,
      "accent": 7143,
      "Ġ2003": 7144,
      "Ã©viter": 7145,
      "Ġmondialisation": 7146,
      "ĠextÃ©rieure": 7147,
      "Ġtransfrontal": 7148,
      "Ġfailure": 7149,
      "introduction": 7150,
      "ĠSpanish": 7151,
      "CNS": 7152,
      "ax": 7153,
      "set": 7154,
      "ĠÃ®": 7155,
      "pected": 7156,
      "Ġinterinstitution": 7157,
      "ĠBureau": 7158,
      "Ġentendre": 7159,
      "clusion": 7160,
      "Ġnotion": 7161,
      "illed": 7162,
      "ĠsystÃ©": 7163,
      "Ġimage": 7164,
      "Ġexistent": 7165,
      "Ġparticipate": 7166,
      "ĠprÃ©sidents": 7167,
      "Ġ197": 7168,
      "Ġpuisqu": 7169,
      "ĠSec": 7170,
      "Ġanimals": 7171,
      "ĠDublin": 7172,
      "exploitation": 7173,
      "hne": 7174,
      "lÃł": 7175,
      "oblig": 7176,
      "atte": 7177,
      "Ġprohib": 7178,
      "irme": 7179,
      "Ġforest": 7180,
      "Ġpropri": 7181,
      "Ġdevrons": 7182,
      "Ġheav": 7183,
      "ĠÃªtres": 7184,
      "Ġsoum": 7185,
      "exprimer": 7186,
      "rice": 7187,
      "Ġrefuse": 7188,
      "ĠOffice": 7189,
      "Ġknows": 7190,
      "Ġgene": 7191,
      "Ġseeking": 7192,
      "Ġauront": 7193,
      "ĠrÃ©gionales": 7194,
      "ĠnÃ©glig": 7195,
      "Ġadministr": 7196,
      "Ġgrowing": 7197,
      "Ġefficacement": 7198,
      "Ġappears": 7199,
      "ĠHaider": 7200,
      "Ġcigarettes": 7201,
      "des": 7202,
      "ki": 7203,
      "Ġfrais": 7204,
      "Ġlaunch": 7205,
      "Ġtox": 7206,
      "Ġtool": 7207,
      "ĠCE": 7208,
      "ĠprÃ©al": 7209,
      "ĠprÃ©paration": 7210,
      "ĠKinn": 7211,
      "ĠpremiÃ¨res": 7212,
      "engen": 7213,
      "Ġmilk": 7214,
      "Ġsalue": 7215,
      "ĠrÃ©glementations": 7216,
      "Ġdrawing": 7217,
      "ĠAgriculture": 7218,
      "ĠAgreement": 7219,
      "Ġlabel": 7220,
      "Ġerreur": 7221,
      "Ġcustom": 7222,
      "ĠKinnock": 7223,
      "TE": 7224,
      "itage": 7225,
      "Ġborder": 7226,
      "chent": 7227,
      "Ġcomply": 7228,
      "Ġadmit": 7229,
      "osevic": 7230,
      "Ġintol": 7231,
      "cepti": 7232,
      "Ġapprove": 7233,
      "Ġperd": 7234,
      "Ġdomin": 7235,
      "Ġpermettent": 7236,
      "Ġessentiellement": 7237,
      "Ġprincipaux": 7238,
      "Ġcitizen": 7239,
      "Ġfonde": 7240,
      "Ġadded": 7241,
      "Ġoffre": 7242,
      "ircraft": 7243,
      "ĠTrade": 7244,
      "Ġpatrim": 7245,
      "risti": 7246,
      "ĠOrganisation": 7247,
      "erous": 7248,
      "Ġeau": 7249,
      "Ġcontient": 7250,
      "ĠconcrÃ©": 7251,
      "Ġdiss": 7252,
      "ift": 7253,
      "Ġmark": 7254,
      "Ã©nie": 7255,
      "ologne": 7256,
      "Ġpouvait": 7257,
      "Ġsupply": 7258,
      "Quant": 7259,
      "Ġguaranteed": 7260,
      "Ġparliaments": 7261,
      "ĠFinlande": 7262,
      "ĠcontrÃ´ler": 7263,
      "ĠnuclÃ©aires": 7264,
      "ĠflexibilitÃ©": 7265,
      "ĠConsumer": 7266,
      "ĠconfrontÃ©s": 7267,
      "2006": 7268,
      "Ġinsuffis": 7269,
      "Ġreinfor": 7270,
      "General": 7271,
      "Cet": 7272,
      "Mon": 7273,
      "Ġlate": 7274,
      "Ġround": 7275,
      "vec": 7276,
      "Ġvaut": 7277,
      "Ġcommittees": 7278,
      "Ġsole": 7279,
      "Ġcomplic": 7280,
      "Ġcompren": 7281,
      "Ġmanage": 7282,
      "Ġpartici": 7283,
      "ĠrÃ¨gle": 7284,
      "ĠWall": 7285,
      "Ġcorruption": 7286,
      "ĠdÃ©fend": 7287,
      "Ġjuris": 7288,
      "ouvez": 7289,
      "Ġculturelle": 7290,
      "Ġillustr": 7291,
      "Ġindividuals": 7292,
      "Ġseuls": 7293,
      "Ġopposed": 7294,
      "Ġstrongly": 7295,
      "ĠdÃ©terminer": 7296,
      "oriz": 7297,
      "Ġmanufacturer": 7298,
      "ĠprÃ©parer": 7299,
      "gÃ©es": 7300,
      "Ġ0": 7301,
      "Ġaircraft": 7302,
      "Ġcred": 7303,
      "Ġquels": 7304,
      "Ġproof": 7305,
      "ĠPME": 7306,
      "agner": 7307,
      "Ġplac": 7308,
      "Ã¨rement": 7309,
      "issait": 7310,
      "Ġsouver": 7311,
      "Ġrecour": 7312,
      "Ġarmes": 7313,
      "Ġpresence": 7314,
      "ĠKu": 7315,
      "Ġgreatest": 7316,
      "ĠVice": 7317,
      "ĠrÃ©fÃ©r": 7318,
      "Depuis": 7319,
      "ĠidÃ©": 7320,
      "Ġpayments": 7321,
      "Ġelected": 7322,
      "Ġcontrols": 7323,
      "Ġgetting": 7324,
      "Ġsubsidies": 7325,
      "ĠopÃ©ration": 7326,
      "Ġconvaincu": 7327,
      "Ġchoice": 7328,
      "centage": 7329,
      "adesh": 7330,
      "Ġtimet": 7331,
      "ĠextÃ©rieures": 7332,
      "ĠimmÃ©diatement": 7333,
      "angladesh": 7334,
      "Ġphysi": 7335,
      "From": 7336,
      "sh": 7337,
      "itement": 7338,
      "Ġmises": 7339,
      "Ġhoriz": 7340,
      "Ġsovere": 7341,
      "ĠcodÃ©": 7342,
      "ĠFreedom": 7343,
      "Ġnonetheless": 7344,
      "Ġfinancer": 7345,
      "phere": 7346,
      "Ġsuppression": 7347,
      "Ġelectronic": 7348,
      "Ġfaciliter": 7349,
      "ĠprÃ©cÃ©dente": 7350,
      "Ġqualified": 7351,
      "ĠDanemark": 7352,
      "ĠGreen": 7353,
      "Ġsilence": 7354,
      "Ã³n": 7355,
      "Ġcultures": 7356,
      "Ġsovereign": 7357,
      "06": 7358,
      "mbre": 7359,
      "tidi": 7360,
      "Ġsin": 7361,
      "eter": 7362,
      "Ġunc": 7363,
      "pping": 7364,
      "itiÃ©": 7365,
      "Ġacteurs": 7366,
      "Ġaccus": 7367,
      "Ġemissions": 7368,
      "Ġmains": 7369,
      "Ġinvite": 7370,
      "appliquer": 7371,
      "Ġretour": 7372,
      "Ġreprise": 7373,
      "ĠcomplÃ¨te": 7374,
      "Ġapplicable": 7375,
      "Ġamongst": 7376,
      "Ġbilateral": 7377,
      "Ġdisponibles": 7378,
      "Ġdistinction": 7379,
      "Ġferroviaire": 7380,
      "ĠphÃ©nomÃ¨ne": 7381,
      "Ġvendredi": 7382,
      "Ġstipul": 7383,
      "Ġsympath": 7384,
      "FR": 7385,
      "ba": 7386,
      "ik": 7387,
      "iend": 7388,
      "mos": 7389,
      "trait": 7390,
      "Ã©tat": 7391,
      "alistes": 7392,
      "ĠdÃ©rog": 7393,
      "igence": 7394,
      "Ġneither": 7395,
      "conde": 7396,
      "Ġmode": 7397,
      "Ġthereby": 7398,
      "Ġmargin": 7399,
      "Ġfactors": 7400,
      "ugen": 7401,
      "olume": 7402,
      "Ġinflation": 7403,
      "Ġautrement": 7404,
      "Ġfemme": 7405,
      "ĠfÃ©licit": 7406,
      "Ġfavoriser": 7407,
      "ĠSchengen": 7408,
      "Ġentirely": 7409,
      "Ġprospect": 7410,
      "Ġconflicts": 7411,
      "Amend": 7412,
      "Ġrenewable": 7413,
      "Ġdictat": 7414,
      "TroisiÃ¨mement": 7415,
      "essions": 7416,
      "Ġsides": 7417,
      "iting": 7418,
      "Ġbinding": 7419,
      "Ġhours": 7420,
      "Ġvolume": 7421,
      "olue": 7422,
      "ĠDen": 7423,
      "Ġsocialistes": 7424,
      "Ġextended": 7425,
      "llectu": 7426,
      "Ġapprouver": 7427,
      "Ġaugmenter": 7428,
      "ĠFinland": 7429,
      "Ġresolve": 7430,
      "Ġquotidi": 7431,
      "Ġcompagnies": 7432,
      "ĠMilosevic": 7433,
      "Avec": 7434,
      "ford": 7435,
      "Ġcop": 7436,
      "Ġrational": 7437,
      "Ġunless": 7438,
      "ĠCan": 7439,
      "tÃ©rieur": 7440,
      "ĠBrit": 7441,
      "Ġmonetary": 7442,
      "ĠÃ©tude": 7443,
      "ĠprÃ©sentÃ©e": 7444,
      "Ġnationals": 7445,
      "Ġprofonde": 7446,
      "ĠdiffÃ©rences": 7447,
      "heugen": 7448,
      "Ġfamilles": 7449,
      "Ġprivatis": 7450,
      "ĠconnaÃ®tre": 7451,
      "Ġaimed": 7452,
      "Ġready": 7453,
      "Ġclarify": 7454,
      "Ã©tablir": 7455,
      "ĠVerheugen": 7456,
      "Certains": 7457,
      "Ġfacile": 7458,
      "Ġperfectly": 7459,
      "Ġprolong": 7460,
      "Ġpatrimoine": 7461,
      "Yet": 7462,
      "ĠQu": 7463,
      "Ġloss": 7464,
      "anisme": 7465,
      "ĠControl": 7466,
      "ĠsupÃ©": 7467,
      "Ġtruly": 7468,
      "ancement": 7469,
      "Ġorateurs": 7470,
      "ĠBSE": 7471,
      "ĠrÃ©serve": 7472,
      "Ġanyone": 7473,
      "Ġpersonnellement": 7474,
      "Ã©matique": 7475,
      "Ġoperate": 7476,
      "Ġstarted": 7477,
      "Ġchefs": 7478,
      "Ġdeclaration": 7479,
      "ĠxÃ©nophobie": 7480,
      "President": 7481,
      "ĠBarnier": 7482,
      "lan": 7483,
      "Ġnul": 7484,
      "atri": 7485,
      "Ġfacing": 7486,
      "ĠEx": 7487,
      "Ġital": 7488,
      "ĠproposÃ©e": 7489,
      "argo": 7490,
      "Ġsocialiste": 7491,
      "actory": 7492,
      "Ã»t": 7493,
      "ĠcommunautÃ©s": 7494,
      "akis": 7495,
      "ĠsÃ©rieusement": 7496,
      "Ġconduite": 7497,
      "ĠAng": 7498,
      "ographique": 7499,
      "Ġattendons": 7500,
      "Ġdiminution": 7501,
      "Ġsupprimer": 7502,
      "Ġoccident": 7503,
      "Ori": 7504,
      "just": 7505,
      "uted": 7506,
      "oned": 7507,
      "Ġlancer": 7508,
      "Ġcesse": 7509,
      "Ġnav": 7510,
      "Ġinade": 7511,
      "Ġbri": 7512,
      "Ġsaur": 7513,
      "Ġaviation": 7514,
      "uds": 7515,
      "appe": 7516,
      "Intern": 7517,
      "Ġelimin": 7518,
      "Ġvisite": 7519,
      "ĠdurÃ©e": 7520,
      "Ġemployees": 7521,
      "Ġopening": 7522,
      "Ġparlements": 7523,
      "Ġhistorique": 7524,
      "Ġenterprises": 7525,
      "ĠadÃ©quate": 7526,
      "ĠVerts": 7527,
      "ĠexpÃ©rience": 7528,
      "Ġbrevet": 7529,
      "uillet": 7530,
      "harmonisation": 7531,
      "Ġprecautionary": 7532,
      "cks": 7533,
      "ya": 7534,
      "year": 7535,
      "ĠX": 7536,
      "Ġlu": 7537,
      "ĠpÃ©": 7538,
      "Ġhor": 7539,
      "uth": 7540,
      "ĠÃ©cl": 7541,
      "Ġjuillet": 7542,
      "issances": 7543,
      "ĠBas": 7544,
      "sec": 7545,
      "exem": 7546,
      "expÃ©ri": 7547,
      "ĠLomÃ©": 7548,
      "Ġassume": 7549,
      "Ġressort": 7550,
      "Ġintellectu": 7551,
      "Ġrelever": 7552,
      "ĠopÃ©rations": 7553,
      "ĠItalian": 7554,
      "Ġcontradict": 7555,
      "Ġlikely": 7556,
      "Ġxenophobia": 7557,
      "Ag": 7558,
      "MÃªme": 7559,
      "ians": 7560,
      "odi": 7561,
      "Ġtonnes": 7562,
      "Ġsinc": 7563,
      "orough": 7564,
      "ung": 7565,
      "ilos": 7566,
      "ĠCar": 7567,
      "ĠCom": 7568,
      "emplois": 7569,
      "Ġmacro": 7570,
      "Ġinterv": 7571,
      "Ġabuse": 7572,
      "ishing": 7573,
      "berg": 7574,
      "Ġpersu": 7575,
      "ugoslav": 7576,
      "ĠKy": 7577,
      "Ġscale": 7578,
      "Ġtechnologie": 7579,
      "Ġheritage": 7580,
      "Ġbreak": 7581,
      "ĠutilisÃ©": 7582,
      "ĠdestinÃ©s": 7583,
      "Ġtrouvent": 7584,
      "ĠdÃ©posÃ©": 7585,
      "Ġconnu": 7586,
      "Ġauxquelles": 7587,
      "Ġallocated": 7588,
      "augmentation": 7589,
      "ĠrÃ©pÃ©ter": 7590,
      "ristian": 7591,
      ".\"": 7592,
      "Aussi": 7593,
      "actu": 7594,
      "son": 7595,
      "uant": 7596,
      "ĠaÃ©ro": 7597,
      "Ġfront": 7598,
      "astern": 7599,
      "Ġvess": 7600,
      "Ġdispl": 7601,
      "aug": 7602,
      "Ġinterne": 7603,
      "Ġcoord": 7604,
      "ĠBÃ¶": 7605,
      "Ġobs": 7606,
      "Ġ1990": 7607,
      "Ġ35": 7608,
      "ĠJuly": 7609,
      "Ġpassage": 7610,
      "Ġvoulu": 7611,
      "Ġ95": 7612,
      "Ġpoids": 7613,
      "Ġdirectrices": 7614,
      "Ġcinqu": 7615,
      "Ġterrorism": 7616,
      "Ġproceedings": 7617,
      "ĠrÃ©flÃ©chir": 7618,
      "Ġexactement": 7619,
      "ĠÃ©missions": 7620,
      "Ġweapons": 7621,
      "aurer": 7622,
      "bru": 7623,
      "Ġdecisive": 7624,
      "Ġey": 7625,
      "Ġquorum": 7626,
      "Ġvivre": 7627,
      "Ġende": 7628,
      "ĠPrem": 7629,
      "Ġplais": 7630,
      "icht": 7631,
      "lies": 7632,
      "Ġappu": 7633,
      "ĠBangladesh": 7634,
      "ramme": 7635,
      "ĠHigh": 7636,
      "Ġincomb": 7637,
      "alism": 7638,
      "aucun": 7639,
      "Ġsett": 7640,
      "Ġretrait": 7641,
      "Ġdifference": 7642,
      "Ġurgency": 7643,
      "Ġjustified": 7644,
      "Ġcombattre": 7645,
      "ĠSocialists": 7646,
      "Ġundertaken": 7647,
      "Ġterrorisme": 7648,
      "ĠSerbia": 7649,
      "Ġlinked": 7650,
      "ĠMonetary": 7651,
      "ĠsuÃ©dois": 7652,
      "ĠrÃ©partition": 7653,
      "DR": 7654,
      "pay": 7655,
      "Ġthorough": 7656,
      "Ġrendu": 7657,
      "Ġreiter": 7658,
      "emes": 7659,
      "Ġexists": 7660,
      "Ã©ritÃ©": 7661,
      "ocation": 7662,
      "exerc": 7663,
      "ĠDi": 7664,
      "ĠLud": 7665,
      "Ġterri": 7666,
      "Ġ300": 7667,
      "ctifs": 7668,
      "Ġinclusion": 7669,
      "Ġorganismes": 7670,
      "ook": 7671,
      "Ġimposed": 7672,
      "Ġcalcul": 7673,
      "Ġminority": 7674,
      "Ġregrettable": 7675,
      "ĠBarcel": 7676,
      "Ġprotecting": 7677,
      "ĠYugoslav": 7678,
      "Ġdemonstrated": 7679,
      "Ġconsistent": 7680,
      "Ġrenouvelables": 7681,
      "IP": 7682,
      "lor": 7683,
      "erver": 7684,
      "oub": 7685,
      "Ġdehors": 7686,
      "Ġenh": 7687,
      "Ġship": 7688,
      "Ġamen": 7689,
      "Ġautonom": 7690,
      "Ġminute": 7691,
      "Ġspace": 7692,
      "Ġfollowed": 7693,
      "Ġinstances": 7694,
      "suite": 7695,
      "Ġsuscepti": 7696,
      "ĠgÃ©nÃ©rales": 7697,
      "Ġunderstanding": 7698,
      "Ġfixer": 7699,
      "Ġdelays": 7700,
      "Ġboard": 7701,
      "ĠsecrÃ©t": 7702,
      "mbuds": 7703,
      "Ġinnovation": 7704,
      "Ġgrec": 7705,
      "Ġressortissants": 7706,
      "Ġwitness": 7707,
      "Ġendeav": 7708,
      "EU": 7709,
      "lated": 7710,
      "ĠtÃ´t": 7711,
      "ĠCol": 7712,
      "pÃ©s": 7713,
      "adap": 7714,
      "ĠRep": 7715,
      "entiel": 7716,
      "Ġ1994": 7717,
      "Ġprotected": 7718,
      "ĠKar": 7719,
      "ground": 7720,
      "Ġsuffering": 7721,
      "Ġengage": 7722,
      "Ġpaqu": 7723,
      "Ġsolve": 7724,
      "Ġimposer": 7725,
      "ĠSocialist": 7726,
      "Ġimmediate": 7727,
      "Ġextensive": 7728,
      "ĠBudgetary": 7729,
      "Ġseparate": 7730,
      "ĠcodÃ©cision": 7731,
      "estim": 7732,
      "uner": 7733,
      "Ġroutes": 7734,
      "Ġrede": 7735,
      "Ġpersist": 7736,
      "pleur": 7737,
      "ĠsÃ©v": 7738,
      "Ġunderm": 7739,
      "ercussions": 7740,
      "Ġspeaker": 7741,
      "Ġenvisager": 7742,
      "Ġschemes": 7743,
      "Ġpractices": 7744,
      "Ġrepeated": 7745,
      "Ã©chelle": 7746,
      "Ġcheck": 7747,
      "Ġclean": 7748,
      "Ġcorrectement": 7749,
      "Irlande": 7750,
      "dÃ©m": 7751,
      "oke": 7752,
      "entrÃ©e": 7753,
      "Ġincon": 7754,
      "Ġrevision": 7755,
      "Ġvaste": 7756,
      "Ġforum": 7757,
      "Ġfaced": 7758,
      "Ġtrust": 7759,
      "Ġcompuls": 7760,
      "export": 7761,
      "Ġsymb": 7762,
      "ĠÃ©tudes": 7763,
      "Ġconsiders": 7764,
      "phÃ©riques": 7765,
      "ĠdÃ©battre": 7766,
      "ĠrÃ©pÃ¨te": 7767,
      "Only": 7768,
      "Ġspok": 7769,
      "Ġretards": 7770,
      "Ġfondamentale": 7771,
      "Ã©vrier": 7772,
      "Ġleading": 7773,
      "ĠprÃ©ciser": 7774,
      "Ġdefine": 7775,
      "Ġreprendre": 7776,
      "ĠMaastr": 7777,
      "ypre": 7778,
      "Malheureusement": 7779,
      "Ġfabric": 7780,
      "Ġcirconstances": 7781,
      "ĠsystÃ©matique": 7782,
      "ĠDenmark": 7783,
      "bruary": 7784,
      "ĠMaastricht": 7785,
      "SP": 7786,
      "Ġlo": 7787,
      "Ġling": 7788,
      "Ġsid": 7789,
      "Ġence": 7790,
      "Ġdestruction": 7791,
      "ĠMais": 7792,
      "ĠIran": 7793,
      "ĠCommissioners": 7794,
      "Ġsurf": 7795,
      "Ġinterested": 7796,
      "Ġpostes": 7797,
      "Ġincident": 7798,
      "Ġtouche": 7799,
      "ctiveness": 7800,
      "ministration": 7801,
      "ĠmontrÃ©": 7802,
      "Ġ500": 7803,
      "Ġ2006": 7804,
      "Ġrequirement": 7805,
      "Ġsoutenu": 7806,
      "Ġprecise": 7807,
      "ĠinquiÃ©tudes": 7808,
      "ĠMoroc": 7809,
      "Ġthousands": 7810,
      "ĠTransport": 7811,
      "Ġajout": 7812,
      "05": 7813,
      "areness": 7814,
      "Ġfrontal": 7815,
      "urde": 7816,
      "ingt": 7817,
      "Ġviennent": 7818,
      "ired": 7819,
      "Ġseconde": 7820,
      "ĠrÃ©cl": 7821,
      "ĠIr": 7822,
      "ocole": 7823,
      "ĠTch": 7824,
      "Ġpartout": 7825,
      "Ġnoted": 7826,
      "ĠNor": 7827,
      "ĠChypre": 7828,
      "Ġexamen": 7829,
      "Ġactuels": 7830,
      "Ġinvolvement": 7831,
      "ĠProg": 7832,
      "Ġremarquer": 7833,
      "ĠFebruary": 7834,
      "Ġmaxim": 7835,
      "Ġmandate": 7836,
      "Ġdangereuses": 7837,
      "Ġvirt": 7838,
      "Ġconcentrer": 7839,
      "octroi": 7840,
      ")).": 7841,
      "fique": 7842,
      "Ġacts": 7843,
      "ĠfÃ©vrier": 7844,
      "Ġlaisse": 7845,
      "vembre": 7846,
      "Ġhos": 7847,
      "Ġhors": 7848,
      "Ġwhatever": 7849,
      "Ġlien": 7850,
      "Ġposte": 7851,
      "Ġnovembre": 7852,
      "Ġhumaines": 7853,
      "Ġrefl": 7854,
      "Ġexamples": 7855,
      "Ġevening": 7856,
      "Ġnumerous": 7857,
      "Ġavantages": 7858,
      "Ġsold": 7859,
      "Ġbanan": 7860,
      "Ġassociated": 7861,
      "Ġrailways": 7862,
      "Ġobtenu": 7863,
      "oolig": 7864,
      "Ġrespected": 7865,
      "ĠmÃ©diateur": 7866,
      "ĠDanish": 7867,
      "Ġtelecommunications": 7868,
      "Ġlanguages": 7869,
      "Ġcompetence": 7870,
      "Ġprononcer": 7871,
      "Ġabsten": 7872,
      "Ġlegitimate": 7873,
      "Ġfailed": 7874,
      "Ġfulfil": 7875,
      "Ġvivement": 7876,
      "exercice": 7877,
      "ĠLudford": 7878,
      "Ġcompulsory": 7879,
      "GM": 7880,
      "cally": 7881,
      "ptions": 7882,
      "Ġfr": 7883,
      "Ġnight": 7884,
      "Ġannex": 7885,
      "Ġsele": 7886,
      "anda": 7887,
      "ueil": 7888,
      "Ġnomin": 7889,
      "Ã©tch": 7890,
      "Ġpermit": 7891,
      "Ġorganes": 7892,
      "ĠautoritÃ©": 7893,
      "otechn": 7894,
      "ĠEuropol": 7895,
      "Ġpoursuite": 7896,
      "what": 7897,
      "Ġprotocol": 7898,
      "Ġinterpret": 7899,
      "Ġjudicial": 7900,
      "Ã©diterranÃ©e": 7901,
      "ĠtÃ¢ches": 7902,
      "Ġdignity": 7903,
      "Ġmauvais": 7904,
      "Pers": 7905,
      "uvre": 7906,
      "inv": 7907,
      "uration": 7908,
      "Ġunf": 7909,
      "Ġsection": 7910,
      "tream": 7911,
      "Ġavril": 7912,
      "Ġcoast": 7913,
      "Ġaccro": 7914,
      "Ġcommuni": 7915,
      "ĠrÃ©serves": 7916,
      "ella": 7917,
      "server": 7918,
      "Ġtextes": 7919,
      "Ġpassed": 7920,
      "ĠprÃ©vue": 7921,
      "ĠÃ©crit": 7922,
      "Ġconsumption": 7923,
      "ĠstratÃ©gique": 7924,
      "field": 7925,
      "Ġultim": 7926,
      "Ġmauvaise": 7927,
      "Ġfacilitate": 7928,
      "Ġcredibility": 7929,
      "pre": 7930,
      "tte": 7931,
      "Ġdan": 7932,
      "Ġpous": 7933,
      "Ġcite": 7934,
      "Ġdepart": 7935,
      "Ġworse": 7936,
      "sie": 7937,
      "ĠCub": 7938,
      "Ã¨ces": 7939,
      "uting": 7940,
      "ĠMÃ©diterranÃ©e": 7941,
      "ader": 7942,
      "Ġlif": 7943,
      "ĠFer": 7944,
      "Ġouv": 7945,
      "Ins": 7946,
      "Ġpossibly": 7947,
      "Ġamended": 7948,
      "Ġassumer": 7949,
      "Ġfinanc": 7950,
      "ĠChin": 7951,
      "Ġdomes": 7952,
      "Ġpremiers": 7953,
      "ĠportÃ©e": 7954,
      "Ġuranium": 7955,
      "retagne": 7956,
      "Ġawareness": 7957,
      "Ġafric": 7958,
      "ĠEurodac": 7959,
      "Ġrelativement": 7960,
      "Alors": 7961,
      "Ġtravaillent": 7962,
      "Ġfighting": 7963,
      "ĠutilisÃ©s": 7964,
      "Ġpersonally": 7965,
      "Ġprotocole": 7966,
      "ĠMaat": 7967,
      "Ġouverte": 7968,
      "lause": 7969,
      "Ġpaiement": 7970,
      "Ġsentiment": 7971,
      "Ġautrichien": 7972,
      "laudissements": 7973,
      "ĠrevÃªt": 7974,
      "Ġstabilisation": 7975,
      "Orient": 7976,
      "Ġlinguis": 7977,
      "OLAF": 7978,
      "Ġpath": 7979,
      "Ġfle": 7980,
      "vember": 7981,
      "Ġconception": 7982,
      "Ġenreg": 7983,
      "ĠdÃ©lic": 7984,
      "ĠMart": 7985,
      "Ġnear": 7986,
      "agissant": 7987,
      "Ã©rations": 7988,
      "Ġdivision": 7989,
      "Ġinsurance": 7990,
      "ĠproposÃ©s": 7991,
      "ĠproposÃ©es": 7992,
      "autant": 7993,
      "Ġproduire": 7994,
      "ĠrÃ©gler": 7995,
      "Ġ1993": 7996,
      "Ġlegally": 7997,
      "Ġsomewhat": 7998,
      "alisme": 7999,
      "ĠacceptÃ©": 8000,
      "Ġsupposed": 8001,
      "Ġcorps": 8002,
      "ĠrÃ©gional": 8003,
      "Ġchanged": 8004,
      "Ġculturel": 8005,
      "ĠNovember": 8006,
      "ĠrÃ©unions": 8007,
      "Ġouvert": 8008,
      "Ġderog": 8009,
      "Ġreflect": 8010,
      "examiner": 8011,
      "Ġresolved": 8012,
      "OMC": 8013,
      "Ġcloning": 8014,
      "Lastly": 8015,
      "ĠAssembly": 8016,
      "Ġadministrations": 8017,
      "Ġsouverain": 8018,
      "sch": 8019,
      "enomen": 8020,
      "tection": 8021,
      "Ġwhilst": 8022,
      "tering": 8023,
      "Ġcommissions": 8024,
      "Ġshared": 8025,
      "Ġcontained": 8026,
      "oco": 8027,
      "ĠmoitiÃ©": 8028,
      "ĠBuit": 8029,
      "ĠFra": 8030,
      "Ġmarine": 8031,
      "Ġconfidenti": 8032,
      "Ġ1992": 8033,
      "ĠprÃ©sents": 8034,
      "Ġformal": 8035,
      "Ġafford": 8036,
      "Ġplaced": 8037,
      "Ġhighest": 8038,
      "Ġphenomen": 8039,
      "Ġ%.": 8040,
      "Ġ70": 8041,
      "Ġbiotechn": 8042,
      "avez": 8043,
      "Ã©poque": 8044,
      "Ġbringing": 8045,
      "Ġobservation": 8046,
      "Ġnevertheless": 8047,
      "Ġrespective": 8048,
      "Ã©change": 8049,
      "Ġpetite": 8050,
      "Ġsufficiently": 8051,
      "Ġfamiliar": 8052,
      "Ġbriefly": 8053,
      "ĠÃ©norme": 8054,
      "ĠmÃ©dic": 8055,
      "Ġtimetable": 8056,
      "mbudsman": 8057,
      "Tous": 8058,
      "dical": 8059,
      "lam": 8060,
      "Ġbann": 8061,
      "Ġvingt": 8062,
      "Ġgas": 8063,
      "Ġexceptions": 8064,
      "Ġaspir": 8065,
      "Ġatmos": 8066,
      "Ġsauve": 8067,
      "issante": 8068,
      "Ġregr": 8069,
      "Ġoptions": 8070,
      "aliser": 8071,
      "Ġentrepren": 8072,
      "Ġphilos": 8073,
      "ĠÃ©coles": 8074,
      "ĠprivÃ©": 8075,
      "Ã©rÃ©s": 8076,
      "Ġequip": 8077,
      "Ġorigine": 8078,
      "Ġsuggested": 8079,
      "Ġmeaning": 8080,
      "ĠqualifiÃ©e": 8081,
      "Ġprofessional": 8082,
      "ĠÃ©nergie": 8083,
      "Ġpurely": 8084,
      "ĠdignitÃ©": 8085,
      "Ġsemblent": 8086,
      "ĠforÃªts": 8087,
      "ĠBuiten": 8088,
      "ding": 8089,
      "nant": 8090,
      "Ġrent": 8091,
      "irk": 8092,
      "riers": 8093,
      "ĠÃªtes": 8094,
      "Ġtransactions": 8095,
      "Ġpartag": 8096,
      "ĠHow": 8097,
      "ĠsÃ©jour": 8098,
      "Ġapproxim": 8099,
      "undred": 8100,
      "Ġtravaille": 8101,
      "Ġfacts": 8102,
      "ĠOn": 8103,
      "ĠOcto": 8104,
      "aliste": 8105,
      "Ġsouha": 8106,
      "ĠmÃ©de": 8107,
      "Ġconviction": 8108,
      "ĠindiquÃ©": 8109,
      "Ġdisposal": 8110,
      "Ġcontacts": 8111,
      "Ġcooperate": 8112,
      "Ġwithdraw": 8113,
      "Ġundertakings": 8114,
      "obligation": 8115,
      "ĠPremier": 8116,
      "ĠOctober": 8117,
      "%.": 8118,
      "wide": 8119,
      "ennes": 8120,
      "ĠthÃ¨mes": 8121,
      "tein": 8122,
      "osÃ©": 8123,
      "pped": 8124,
      "ĠdÃ©tru": 8125,
      "Ġfacteur": 8126,
      "Ġcommissaires": 8127,
      "Ġlies": 8128,
      "ĠliÃ©e": 8129,
      "ĠcomprÃ©": 8130,
      "Ġdiox": 8131,
      "ĠGM": 8132,
      "excell": 8133,
      "Ġusage": 8134,
      "Ġcourts": 8135,
      "Ã®ne": 8136,
      "Ġdifficiles": 8137,
      "ĠÃ©levÃ©s": 8138,
      "Ġtechnological": 8139,
      "missible": 8140,
      "ĠcontribuÃ©": 8141,
      "utiliser": 8142,
      "Ġstressed": 8143,
      "ĠYork": 8144,
      "ĠSerbie": 8145,
      "Ġchemins": 8146,
      "Ġcodecision": 8147,
      "Ġelsewhere": 8148,
      "Ġclimate": 8149,
      "Ġclonage": 8150,
      "ctobre": 8151,
      "crire": 8152,
      "Ġdemeure": 8153,
      "Ã¡n": 8154,
      "Ġpalestin": 8155,
      "Mes": 8156,
      "limin": 8157,
      "erce": 8158,
      "isted": 8159,
      "Ġwarm": 8160,
      "Ġnour": 8161,
      "Ġlait": 8162,
      "Ġhar": 8163,
      "Ġforests": 8164,
      "ĠprÃ©jud": 8165,
      "Ġtraditions": 8166,
      "ĠÃ©galitÃ©": 8167,
      "ĠDav": 8168,
      "obod": 8169,
      "ĠrÃ©solu": 8170,
      "weg": 8171,
      "ĠprÃ©sentation": 8172,
      "Ġvalu": 8173,
      "Ġscience": 8174,
      "Ġfarming": 8175,
      "ĠvÃ©ritablement": 8176,
      "Ġprostitution": 8177,
      "Ġapplicant": 8178,
      "Ġclarification": 8179,
      "icycle": 8180,
      "Ġtraditional": 8181,
      "ĠMonti": 8182,
      "Ġpoliticians": 8183,
      "Ġdirigeants": 8184,
      "acao": 8185,
      "Ġidentity": 8186,
      "ĠBasque": 8187,
      "Ġahead": 8188,
      "Ġpouvez": 8189,
      "Ġstru": 8190,
      "Ġgros": 8191,
      "resent": 8192,
      "Ġplant": 8193,
      "Ġrace": 8194,
      "ĠScot": 8195,
      "Ġresidence": 8196,
      "Ġcomplement": 8197,
      "auv": 8198,
      "Ġpolitics": 8199,
      "Ġfine": 8200,
      "avi": 8201,
      "Ġsubse": 8202,
      "ĠÃ©tape": 8203,
      "Ġcroire": 8204,
      "Ġfutur": 8205,
      "ĠVitor": 8206,
      "Ġconsidering": 8207,
      "Ġelectric": 8208,
      "Ġremarks": 8209,
      "ĠEuropÃ©ens": 8210,
      "Ġlangue": 8211,
      "ĠMarket": 8212,
      "ĠconsidÃ©rable": 8213,
      "Ġinspection": 8214,
      "ĠdÃ©finitive": 8215,
      "Ġexplanation": 8216,
      "Ġmateri": 8217,
      "Ġmaladie": 8218,
      "ĠPalestinian": 8219,
      "Internet": 8220,
      "Ex": 8221,
      "Ma": 8222,
      "euse": 8223,
      "Ġmass": 8224,
      "Ġnord": 8225,
      "unanim": 8226,
      "ilt": 8227,
      "Ġparad": 8228,
      "ĠdÃ©ri": 8229,
      "ĠMiddle": 8230,
      "Ã©ral": 8231,
      "Ġmoving": 8232,
      "esearch": 8233,
      "angers": 8234,
      "Ġsocio": 8235,
      "Ġterre": 8236,
      "Ġauraient": 8237,
      "going": 8238,
      "Ġexemples": 8239,
      "Ġpaci": 8240,
      "016": 8241,
      "Ġhappens": 8242,
      "ĠbÃ©nÃ©fici": 8243,
      "Ġimprovements": 8244,
      "Ġcatastrophes": 8245,
      "ĠinquiÃ©tude": 8246,
      "ĠcatÃ©gorie": 8247,
      "Ġincorporated": 8248,
      "Ġemergency": 8249,
      "ĠStauner": 8250,
      "Ġbovine": 8251,
      "allel": 8252,
      "40": 8253,
      "Plus": 8254,
      "dro": 8255,
      "ral": 8256,
      "Ġut": 8257,
      "Ġtand": 8258,
      "sias": 8259,
      "Ġhundred": 8260,
      "Ġprove": 8261,
      "Ġvivent": 8262,
      "ĠPrime": 8263,
      "ĠdÃ©triment": 8264,
      "ĠAs": 8265,
      "Ġdiv": 8266,
      "Ġrelates": 8267,
      "Ġassum": 8268,
      "Ġattra": 8269,
      "ĠdÃ©faut": 8270,
      "Ġexistants": 8271,
      "Ġsecondly": 8272,
      "Ġfonctionner": 8273,
      "Ġnuit": 8274,
      "Ġextreme": 8275,
      "Ġconnaissons": 8276,
      "ĠapparaÃ®t": 8277,
      "Ġapplying": 8278,
      "DER": 8279,
      "gnif": 8280,
      "Ġtemporary": 8281,
      "ĠrenforcÃ©e": 8282,
      "ĠdÃ©roul": 8283,
      "Ġdigital": 8284,
      "ĠfrÃ©qu": 8285,
      "Ġapart": 8286,
      "Ġci": 8287,
      "Ġcli": 8288,
      "Ġcacao": 8289,
      "Ġbout": 8290,
      "ĠCO": 8291,
      "igrÃ©s": 8292,
      "administration": 8293,
      "Ġdisting": 8294,
      "Ġabus": 8295,
      "Ġcarb": 8296,
      "Ġoppose": 8297,
      "Ġvolunt": 8298,
      "Ġbackground": 8299,
      "Ġoperational": 8300,
      "Ġsalari": 8301,
      "Ġfacilities": 8302,
      "Ġalimentaires": 8303,
      "ĠdÃ©tails": 8304,
      "Ġtenter": 8305,
      "ĠconsidÃ©rables": 8306,
      "Ġdeliber": 8307,
      "ĠintÃ©ressant": 8308,
      "Ġtransformation": 8309,
      "Ġschools": 8310,
      "Ġconsolidation": 8311,
      "Ġpreparing": 8312,
      "Ġmaterial": 8313,
      "Ġaverage": 8314,
      "ĠWestern": 8315,
      "Ġpublished": 8316,
      "ĠFriday": 8317,
      "ĠSecret": 8318,
      "oboda": 8319,
      "unanimitÃ©": 8320,
      "Lad": 8321,
      "UAL": 8322,
      "economic": 8323,
      "hist": 8324,
      "ibilitÃ©": 8325,
      "oon": 8326,
      "inÃ©": 8327,
      "Ġeduc": 8328,
      "arri": 8329,
      "ato": 8330,
      "Ġproche": 8331,
      "Ġtruth": 8332,
      "ĠprÃ©server": 8333,
      "Ġcompliance": 8334,
      "Ġaccr": 8335,
      "existe": 8336,
      "Ã§ant": 8337,
      "ĠmenÃ©es": 8338,
      "Ã©ralement": 8339,
      "Ġintroduire": 8340,
      "Ġcivili": 8341,
      "Ġprogresser": 8342,
      "interdiction": 8343,
      "Ġconseil": 8344,
      "Ġrequests": 8345,
      "Ġconcluded": 8346,
      "Ġinvestments": 8347,
      "nergy": 8348,
      "Ġembry": 8349,
      "Ġemphasis": 8350,
      "Ġindicated": 8351,
      "ĠÃ©nergies": 8352,
      "Ġconcentrate": 8353,
      "ĠHaarder": 8354,
      "Ġvoitures": 8355,
      "Ġstudies": 8356,
      "aviour": 8357,
      "aÃ®tre": 8358,
      "Ġasi": 8359,
      "Ġpacte": 8360,
      "Ġmiss": 8361,
      "Ġmerg": 8362,
      "Ġtoler": 8363,
      "Ġrates": 8364,
      "Ġreli": 8365,
      "impact": 8366,
      "Ġcomposition": 8367,
      "Ġpartly": 8368,
      "ĠrelÃ¨ve": 8369,
      "Ġentrer": 8370,
      "ĠHome": 8371,
      "Ġelder": 8372,
      "ĠdÃ©pit": 8373,
      "Ġformulation": 8374,
      "Ġcontinues": 8375,
      "ĠdonnÃ©e": 8376,
      "Ġprincipales": 8377,
      "ĠGrande": 8378,
      "Ġcomprend": 8379,
      "Ġallowing": 8380,
      "Ġprivil": 8381,
      "Ġhands": 8382,
      "ĠÃ©limin": 8383,
      "Ġjustifier": 8384,
      "atta": 8385,
      "ĠSwoboda": 8386,
      "Ġmultil": 8387,
      "Ġmaintaining": 8388,
      "ĠtrouvÃ©": 8389,
      "Ġhistoric": 8390,
      "Ġuniversal": 8391,
      "ĠGeneral": 8392,
      "ĠGenev": 8393,
      "Ġdisasters": 8394,
      "Ġlatter": 8395,
      "ĠdÃ©clare": 8396,
      "Ġvertu": 8397,
      "investissement": 8398,
      "ĠcrÃ©dibilitÃ©": 8399,
      "ĠÃ®les": 8400,
      "Ġplaisir": 8401,
      "ĠIrish": 8402,
      "ellafield": 8403,
      "Ġelderly": 8404,
      "ĠGeneva": 8405,
      "25": 8406,
      "Ġax": 8407,
      "Ġpornograph": 8408,
      "redi": 8409,
      "erhaps": 8410,
      "Ġfu": 8411,
      "usqu": 8412,
      "abe": 8413,
      "Ġwealth": 8414,
      "ĠrÃ©el": 8415,
      "ĠSellafield": 8416,
      "Ġinterdiction": 8417,
      "Ġmarge": 8418,
      "Ġarms": 8419,
      "obtenir": 8420,
      "ĠproblÃ©matique": 8421,
      "ĠfondÃ©e": 8422,
      "apporte": 8423,
      "ĠdÃ©coul": 8424,
      "Ġparo": 8425,
      "Ġbruit": 8426,
      "Ġlocaux": 8427,
      "Ġsuivant": 8428,
      "Ġpayment": 8429,
      "Ġsanction": 8430,
      "Ġopposite": 8431,
      "ĠcomplÃ¨tement": 8432,
      "Ġprosper": 8433,
      "Ġapplications": 8434,
      "ĠconcrÃ¨tement": 8435,
      "ĠDÃ©putÃ©": 8436,
      "ĠpÃ©nal": 8437,
      "Ġhighlighted": 8438,
      "ĠGenÃ¨ve": 8439,
      "Ġignor": 8440,
      "Ġcoherent": 8441,
      "Peut": 8442,
      "Ġeasier": 8443,
      "Bretagne": 8444,
      "ecu": 8445,
      "iz": 8446,
      "oquer": 8447,
      "ensive": 8448,
      "Ġinev": 8449,
      "sim": 8450,
      "Ġhy": 8451,
      "Ġconfin": 8452,
      "Ġexpected": 8453,
      "ĠrÃ©agir": 8454,
      "ĠSME": 8455,
      "Ġpropag": 8456,
      "Ġamounts": 8457,
      "Ġstable": 8458,
      "ĠBro": 8459,
      "ĠRule": 8460,
      "resser": 8461,
      "ĠNether": 8462,
      "ĠsÃ©par": 8463,
      "Ġapprofond": 8464,
      "ĠJap": 8465,
      "ĠVel": 8466,
      "Ġendorse": 8467,
      "Ġstands": 8468,
      "Ġtaxe": 8469,
      "Ã©rÃ©e": 8470,
      "ĠsÃ»re": 8471,
      "ĠAllemagne": 8472,
      "Ġsexual": 8473,
      "Ġdeliver": 8474,
      "Ġtendance": 8475,
      "Ġplanned": 8476,
      "ĠconsidÃ©rons": 8477,
      "ivalent": 8478,
      "Ġwritten": 8479,
      "ĠprÃ©tend": 8480,
      "aimerais": 8481,
      "DIA": 8482,
      "ĠbriÃ¨vement": 8483,
      "Ġterrible": 8484,
      "oubtedly": 8485,
      "ĠNetherlands": 8486,
      "Bas": 8487,
      "Ġlose": 8488,
      "Ġense": 8489,
      "ola": 8490,
      "Ġcommence": 8491,
      "ĠEuropeans": 8492,
      "Ġdirais": 8493,
      "ifs": 8494,
      "ĠGu": 8495,
      "Ġclub": 8496,
      "Ġrelatifs": 8497,
      "ĠÃ©valu": 8498,
      "ĠintÃ©gr": 8499,
      "Ġ32": 8500,
      "ĠdÃ©mocrates": 8501,
      "Ġrestent": 8502,
      "Ġbehaviour": 8503,
      "Ġinfra": 8504,
      "Ġmilieu": 8505,
      "Ġfonctionne": 8506,
      "Ã©micycle": 8507,
      "Ġjudic": 8508,
      "Allemagne": 8509,
      "Ġcontinued": 8510,
      "Ġcharter": 8511,
      "Ġcherche": 8512,
      "Ġstrengthening": 8513,
      "ĠconsacrÃ©": 8514,
      "Ġdemonstrate": 8515,
      "Ġlower": 8516,
      "Ġconcrets": 8517,
      "Ġgranting": 8518,
      "ĠprofondÃ©ment": 8519,
      "Ġsacri": 8520,
      "Ġhorizont": 8521,
      "Ġspoken": 8522,
      "ĠVitorino": 8523,
      "fy": 8524,
      "Ġtir": 8525,
      "ints": 8526,
      "urg": 8527,
      "Ġduquel": 8528,
      "Ġdism": 8529,
      "Ġdisapp": 8530,
      "Ġprime": 8531,
      "ĠentrÃ©e": 8532,
      "Ġaccounts": 8533,
      "Ġincidents": 8534,
      "Ġeffectiveness": 8535,
      "Ġ38": 8536,
      "ĠlÃ©gitime": 8537,
      "Ġroom": 8538,
      "itizens": 8539,
      "Ġengager": 8540,
      "ĠLeft": 8541,
      "Ġadministratives": 8542,
      "Ġpotentiel": 8543,
      "Ġtreated": 8544,
      "Ġregulatory": 8545,
      "ĠRegional": 8546,
      "Because": 8547,
      "Ġmutual": 8548,
      "Ġvoisins": 8549,
      "Ġcompatible": 8550,
      "Ġmajeure": 8551,
      "ĠBritain": 8552,
      "session": 8553,
      "uber": 8554,
      "wan": 8555,
      "Ġtrem": 8556,
      "inqui": 8557,
      "Ġcouver": 8558,
      "ĠgÃ©rer": 8559,
      "ulating": 8560,
      "Ġsurr": 8561,
      "Ġcontam": 8562,
      "Ġenth": 8563,
      "ĠFran": 8564,
      "Ġworks": 8565,
      "Ensuite": 8566,
      "Ġundoubtedly": 8567,
      "Ġexpliquer": 8568,
      "Ġattack": 8569,
      "Ġ45": 8570,
      "Once": 8571,
      "Ġrevanche": 8572,
      "ĠmentionnÃ©": 8573,
      "Ġpasseng": 8574,
      "Ġconsiderations": 8575,
      "ĠprÃ©voir": 8576,
      "Ġenvironnementaux": 8577,
      "Ġsubjects": 8578,
      "Ġdisposent": 8579,
      "Ġambition": 8580,
      "Ġatteinte": 8581,
      "ĠInternal": 8582,
      "ĠdestinÃ©es": 8583,
      "Ġslow": 8584,
      "Ġquota": 8585,
      "ĠderriÃ¨re": 8586,
      "ĠeffectuÃ©": 8587,
      "Ġrigoure": 8588,
      "Ġambitieux": 8589,
      "Ġheading": 8590,
      "ĠsuÃ©doise": 8591,
      "Ġreplace": 8592,
      "Ġinadequate": 8593,
      "ĠProgramme": 8594,
      "ĠCuba": 8595,
      "RE": 8596,
      "bres": 8597,
      "bers": 8598,
      "ta": 8599,
      "ĠmÃ©rit": 8600,
      "Ġwide": 8601,
      "lez": 8602,
      "irms": 8603,
      "pective": 8604,
      "versi": 8605,
      "itimes": 8606,
      "ills": 8607,
      "Ġradical": 8608,
      "Ġreserv": 8609,
      "Ġdisag": 8610,
      "ĠcomplÃ©": 8611,
      "ĠRoth": 8612,
      "ĠÃ©conomies": 8613,
      "Ġvisent": 8614,
      "ĠcrÃ©Ã©": 8615,
      "Ġsuffer": 8616,
      "Ġbrut": 8617,
      "Ġintroduit": 8618,
      "Ġmoral": 8619,
      "ĠÃ©changes": 8620,
      "Ġtalks": 8621,
      "ĠabordÃ©": 8622,
      "Ġrespecte": 8623,
      "adopter": 8624,
      "ĠcapacitÃ©s": 8625,
      "Ġmechanism": 8626,
      "Ġprovenance": 8627,
      "ĠcatÃ©gories": 8628,
      "ĠRoman": 8629,
      "Ġfifteen": 8630,
      "Ġdrugs": 8631,
      "Ġdescribed": 8632,
      "Ġwaters": 8633,
      "expÃ©rience": 8634,
      "Ġpaquet": 8635,
      "exportation": 8636,
      "Ġequipment": 8637,
      "Ġmaterials": 8638,
      "Ladies": 8639,
      "Perhaps": 8640,
      "QUAL": 8641,
      "uves": 8642,
      "onia": 8643,
      "estions": 8644,
      "ĠÃ©ducation": 8645,
      "ĠErika": 8646,
      "Ġadvis": 8647,
      "Ã¨se": 8648,
      "ĠBol": 8649,
      "Ġclaires": 8650,
      "ĠResearch": 8651,
      "Ġtexts": 8652,
      "ĠprÃ©vues": 8653,
      "Ġfollows": 8654,
      "Ġpleas": 8655,
      "Ġcommentaires": 8656,
      "Ġharmful": 8657,
      "ĠrÃ©alisÃ©s": 8658,
      "Ġgoverning": 8659,
      "ĠlÃ©gislatives": 8660,
      "Ġfreedoms": 8661,
      "Ġcarrying": 8662,
      "ĠconstatÃ©": 8663,
      "Ġprennent": 8664,
      "Ġprovenant": 8665,
      "ĠentraÃ®ner": 8666,
      "ĠÃ¢gÃ©es": 8667,
      "Does": 8668,
      "Ġconstantly": 8669,
      "Ġacknowled": 8670,
      "association": 8671,
      "Ġattentive": 8672,
      "Ġremettre": 8673,
      "Ġgeograph": 8674,
      "Ġespagnol": 8675,
      "ĠsouhaitÃ©": 8676,
      "rence": 8677,
      "Ġordin": 8678,
      "Ġdangers": 8679,
      "Ġpati": 8680,
      "Ġsite": 8681,
      "enty": 8682,
      "Ġbou": 8683,
      "ĠCommon": 8684,
      "Those": 8685,
      "Ġsept": 8686,
      "ĠrÃ©form": 8687,
      "ĠrÃ©uss": 8688,
      "impression": 8689,
      "Ġ2010": 8690,
      "Ġaccueill": 8691,
      "oye": 8692,
      "Ġpossibles": 8693,
      "ĠLes": 8694,
      "Ġprie": 8695,
      "Ġmatch": 8696,
      "Ġovercome": 8697,
      "annoye": 8698,
      "Pourtant": 8699,
      "Any": 8700,
      "Ġintell": 8701,
      "Ġfinanced": 8702,
      "Ġanticip": 8703,
      "Ġprepare": 8704,
      "Ġcommerciales": 8705,
      "Ġprofessionnelle": 8706,
      "Ġformuler": 8707,
      "ĠRussian": 8708,
      "Ġholding": 8709,
      "Ġtransfert": 8710,
      "Ġdiplomatic": 8711,
      "rÃ©tation": 8712,
      "Lorsque": 8713,
      "Ġreconnu": 8714,
      "Ġpenalty": 8715,
      "Ġdispositif": 8716,
      "ĠComitÃ©": 8717,
      "Ġphilosoph": 8718,
      "ĠBuitenweg": 8719,
      "Donc": 8720,
      "Mme": 8721,
      "RB": 8722,
      "Such": 8723,
      "based": 8724,
      "yr": 8725,
      "inary": 8726,
      "Ġcab": 8727,
      "tise": 8728,
      "ordi": 8729,
      "Ġmid": 8730,
      "Ġbat": 8731,
      "Ġrass": 8732,
      "Ġvice": 8733,
      "Ġparvenus": 8734,
      "Ġduties": 8735,
      "ĠEastern": 8736,
      "Ġseven": 8737,
      "Ġpolitically": 8738,
      "cession": 8739,
      "erty": 8740,
      "Ġtransmission": 8741,
      "Ġcommuns": 8742,
      "Ġremo": 8743,
      "ĠLannoye": 8744,
      "Ġprocesses": 8745,
      "ctiv": 8746,
      "ĠOmbudsman": 8747,
      "Ġquelcon": 8748,
      "ĠdiffÃ©rente": 8749,
      "ĠnumÃ©rique": 8750,
      "Ġexistantes": 8751,
      "Ġsatisfactory": 8752,
      "Ġconstitute": 8753,
      "Ġnegotiating": 8754,
      "ĠlÃ©gislations": 8755,
      "Ġfavorables": 8756,
      "Ġmaintained": 8757,
      "approche": 8758,
      "Ãītant": 8759,
      "Ġhauteur": 8760,
      "ĠrÃ©guliÃ¨rement": 8761,
      "ĠretraitÃ©s": 8762,
      "Ġintervene": 8763,
      "ĠtÃ©moign": 8764,
      "ĠdÃ©marche": 8765,
      "Ġextraordinaire": 8766,
      "ĠcohÃ©rente": 8767,
      "aguay": 8768,
      "EADER": 8769,
      ".)": 8770,
      "Ad": 8771,
      "Certes": 8772,
      "LDR": 8773,
      "crimin": 8774,
      "prÃ©sident": 8775,
      "sy": 8776,
      "tu": 8777,
      "estement": 8778,
      "timent": 8779,
      "ĠMont": 8780,
      "ender": 8781,
      "ama": 8782,
      "Ġtraged": 8783,
      "ierra": 8784,
      "Ġincap": 8785,
      "Ġamending": 8786,
      "ĠdÃ©pass": 8787,
      "icip": 8788,
      "abling": 8789,
      "ployed": 8790,
      "Ġdemandeurs": 8791,
      "Ġsatisfied": 8792,
      "Ġqualit": 8793,
      "ĠfixÃ©": 8794,
      "Ġdebating": 8795,
      "ĠindÃ©pendants": 8796,
      "Ġessayer": 8797,
      "Ġdollar": 8798,
      "ĠTchÃ©tch": 8799,
      "RBAN": 8800,
      "Con": 8801,
      "iable": 8802,
      "Ġnoir": 8803,
      "Ġrub": 8804,
      "ĠCe": 8805,
      "utor": 8806,
      "Ġneut": 8807,
      "operation": 8808,
      "Ġconcitoy": 8809,
      "Ġcompared": 8810,
      "ĠprÃªte": 8811,
      "ĠBe": 8812,
      "Ġcourte": 8813,
      "Ġmatern": 8814,
      "alists": 8815,
      "nother": 8816,
      "Ġcontracts": 8817,
      "Ġspread": 8818,
      "Ġpeaceful": 8819,
      "Ġlimitation": 8820,
      "Ġsuggestions": 8821,
      "Ġconduit": 8822,
      "Ġprotest": 8823,
      "Ġevalu": 8824,
      "Ġfiscale": 8825,
      "Ġinspections": 8826,
      "Ġstatistiques": 8827,
      "Ġvulner": 8828,
      "Ġannounced": 8829,
      "Ġmunicip": 8830,
      "ĠaÃ©roports": 8831,
      "ocoa": 8832,
      "Ġparoles": 8833,
      "SV": 8834,
      "Ã©tiquetage": 8835,
      "Ġcance": 8836,
      "qual": 8837,
      "Ġoctobre": 8838,
      "aliment": 8839,
      "Ġhoolig": 8840,
      "Ġcong": 8841,
      "ĠCop": 8842,
      "utin": 8843,
      "chant": 8844,
      "Ġfacteurs": 8845,
      "Ġtrou": 8846,
      "Ġaggra": 8847,
      "Ġallou": 8848,
      "Ġmotions": 8849,
      "istan": 8850,
      "ĠPresidents": 8851,
      "Ġinstitu": 8852,
      "Ġsoumettre": 8853,
      "aily": 8854,
      "ĠrÃ©gimes": 8855,
      "Ġissued": 8856,
      "ĠmenÃ©e": 8857,
      "ĠChechn": 8858,
      "Ġsomme": 8859,
      "assistance": 8860,
      "ĠgÃ©nÃ©tique": 8861,
      "Ġspoke": 8862,
      "ĠdÃ©cenn": 8863,
      "Ġurban": 8864,
      "Ġrevend": 8865,
      "Ġcolon": 8866,
      "ariff": 8867,
      "Ġintroducing": 8868,
      "ĠLeone": 8869,
      "Ġbene": 8870,
      "entreprise": 8871,
      "ĠlibÃ©ral": 8872,
      "termine": 8873,
      "Report": 8874,
      "ĠÃ©ventuellement": 8875,
      "Ġbrevets": 8876,
      "Ġdetermination": 8877,
      "Ġprivatisation": 8878,
      "Ġincombe": 8879,
      "Ġvaluable": 8880,
      "Ġvoluntary": 8881,
      "histoire": 8882,
      "ĠChechnya": 8883,
      "Another": 8884,
      "ike": 8885,
      "strÃ¶m": 8886,
      "Ġtellement": 8887,
      "Ġliti": 8888,
      "Ġfelt": 8889,
      "Ġrealistic": 8890,
      "Ġgauche": 8891,
      "ĠSierra": 8892,
      "ads": 8893,
      "Ġconcert": 8894,
      "ĠliÃ©": 8895,
      "Ġserons": 8896,
      "Ġmotifs": 8897,
      "soever": 8898,
      "Ġentry": 8899,
      "ĠintÃ©grer": 8900,
      "rieurs": 8901,
      "ĠOT": 8902,
      "Ġ42": 8903,
      "ĠÃ©lector": 8904,
      "Ã¢ts": 8905,
      "Ġnuis": 8906,
      "ĠLeader": 8907,
      "Ã©las": 8908,
      "Ġorientation": 8909,
      "ĠcommencÃ©": 8910,
      "Ġdiminuer": 8911,
      "Ġsimplification": 8912,
      "ĠÃ©poque": 8913,
      "Ġcomportement": 8914,
      "Ġfriend": 8915,
      "ĠrÃ©tabl": 8916,
      "ĠprÃ©alable": 8917,
      "12": 8918,
      "Can": 8919,
      "goslav": 8920,
      "ĠpÃ©d": 8921,
      "Ġalarm": 8922,
      "illage": 8923,
      "Ġstake": 8924,
      "Ġimportantly": 8925,
      "ĠHaut": 8926,
      "Ġfinances": 8927,
      "Ġinternes": 8928,
      "ĠmenÃ©": 8929,
      "Ġprocessing": 8930,
      "Ġeconomies": 8931,
      "Ġgouvernementales": 8932,
      "Quel": 8933,
      "Ġurgence": 8934,
      "Ġjustify": 8935,
      "Ġdetails": 8936,
      "Yougoslav": 8937,
      "ĠÃ©change": 8938,
      "auration": 8939,
      "Ġayons": 8940,
      "Ġethnique": 8941,
      "Ġconcentration": 8942,
      "Ġinvestigation": 8943,
      "ĠdÃ©gÃ¢ts": 8944,
      "Ġimagine": 8945,
      "Ġwaiting": 8946,
      "Ġdisease": 8947,
      "ĠIndustry": 8948,
      "Ġsupplementary": 8949,
      "Ġmistake": 8950,
      "ĠFreedoms": 8951,
[...]
